<pad>	0
<s>	0
</s>	0
<unk>	0
▁t	-0
he	-1
▁a	-2
▁s	-3
▁o	-4
in	-5
▁of	-6
▁the	-7
er	-8
▁m	-9
il	-10
ur	-11
▁w	-12
nd	-13
..	-14
▁i	-15
on	-16
▁b	-17
▁to	-18
▁f	-19
▁and	-20
es	-21
en	-22
ha	-23
ed	-24
ver	-25
▁c	-26
or	-27
ou	-28
▁p	-29
▁y	-30
ilver	-31
it	-32
al	-33
▁silver	-34
šš	-35
ššur	-36
re	-37
el	-38
...	-39
ar	-40
um	-41
▁d	-42
▁...	-43
▁in	-44
le	-45
ina	-46
ro	-47
▁mina	-48
▁you	-49
ve	-50
▁1	-51
an	-52
▁g	-53
ing	-54
hi	-55
▁se	-56
▁she	-57
▁son	-58
▁ha	-59
kel	-60
ay	-61
▁shekel	-62
▁for	-63
▁he	-64
am	-65
aššur	-66
▁š	-67
at	-68
▁wit	-69
ent	-70
ab	-71
▁shekels	-72
▁n	-73
▁minas	-74
rom	-75
▁co	-76
▁my	-77
▁re	-78
us	-79
▁from	-80
▁aššur	-81
▁al	-82
id	-83
let	-84
▁hi	-85
ot	-86
im	-87
▁it	-88
▁me	-89
▁by	-90
hat	-91
ce	-92
her	-93
▁with	-94
our	-95
33	-96
▁en	-97
▁as	-98
ex	-99
▁l	-100
ill	-101
se	-102
▁enn	-103
▁your	-104
▁k	-105
▁not	-106
▁2	-107
▁that	-108
▁seal	-109
ad	-110
ya	-111
til	-112
▁is	-113
▁šu	-114
aid	-115
▁we	-116
▁(	-117
ah	-118
▁be	-119
as	-120
est	-121
iš	-122
▁will	-123
▁have	-124
▁u	-125
pp	-126
▁tab	-127
▁tablet	-128
▁an	-129
extil	-130
ess	-131
ke	-132
▁ennam	-133
▁go	-134
tar	-135
ter	-136
ave	-137
iya	-138
ān	-139
.5	-140
ut	-141
▁ow	-142
▁-	-143
dd	-144
▁on	-145
ther	-146
▁his	-147
st	-148
extiles	-149
ive	-150
▁3	-151
ištar	-152
▁pay	-153
ity	-154
▁de	-155
ld	-156
alim	-157
▁br	-158
uz	-159
ony	-160
66	-161
pper	-162
▁him	-163
▁ali	-164
▁e	-165
▁am	-166
ust	-167
ilī	-168
ac	-169
."	-170
▁copper	-171
▁at	-172
▁has	-173
▁gave	-174
▁h	-175
ahum	-176
▁they	-177
is	-178
▁4	-179
ness	-180
iv	-181
▁if	-182
▁textiles	-183
od	-184
▁con	-185
th	-186
▁r	-187
aya	-188
▁0	-189
ir	-190
ul	-191
▁do	-192
▁tin	-193
▁šalim	-194
▁so	-195
ct	-196
su	-197
▁5	-198
▁city	-199
▁ab	-200
▁let	-201
▁our	-202
▁send	-203
ain	-204
ake	-205
ion	-206
▁paid	-207
ather	-208
▁whe	-209
me	-210
▁10	-211
ord	-212
ll	-213
▁sha	-214
gh	-215
▁father	-216
▁witness	-217
▁bro	-218
▁brother	-219
▁le	-220
▁[	-221
▁ref	-222
▁"	-223
▁good	-224
3333	-225
▁tal	-226
▁us	-227
▁there	-228
suen	-229
▁amur	-230
res	-231
and	-232
ri	-233
▁talent	-234
▁then	-235
ēl	-236
āni	-237
▁give	-238
▁shall	-239
ined	-240
for	-241
ght	-242
▁or	-243
▁idd	-244
bāni	-245
▁said	-246
▁iddin	-247
▁was	-248
▁refined	-249
▁puz	-250
▁ac	-251
▁col	-252
▁mon	-253
▁puzur	-254
ik	-255
▁are	-256
▁per	-257
▁tr	-258
▁month	-259
ly	-260
▁st	-261
▁here	-262
▁inter	-263
ag	-264
nder	-265
▁them	-266
his	-267
▁bring	-268
▁interest	-269
ch	-270
nt	-271
▁owed	-272
.3333	-273
▁under	-274
ack	-275
ong	-276
▁man	-277
▁acc	-278
ho	-279
ma	-280
cha	-281
▁this	-282
kū	-283
ought	-284
▁must	-285
▁pro	-286
if	-287
iz	-288
▁ca	-289
▁ex	-290
▁all	-291
▁ag	-292
▁conc	-293
ern	-294
▁el	-295
ass	-296
ort	-297
▁take	-298
▁come	-299
▁colony	-300
▁when	-301
ak	-302
▁witnessed	-303
▁don	-304
▁say	-305
wa	-306
ānum	-307
▁ent	-308
▁add	-309
▁talents	-310
▁brought	-311
ouse	-312
▁concern	-313
▁ilī	-314
os	-315
key	-316
▁bel	-317
▁donkey	-318
ould	-319
▁concerning	-320
port	-321
▁house	-322
so	-323
ow	-324
out	-325
la	-326
▁its	-327
āb	-328
fore	-329
bēl	-330
ek	-331
hich	-332
▁th	-333
ṭāb	-334
abum	-335
▁which	-336
ēp	-337
▁out	-338
resent	-339
ered	-340
▁been	-341
▁before	-342
▁belong	-343
▁rep	-344
av	-345
ey	-346
ku	-347
▁0.5	-348
ate	-349
▁also	-350
▁dear	-351
ives	-352
▁one	-353
▁week	-354
ok	-355
onym	-356
itt	-357
ponym	-358
▁owes	-359
bt	-360
ft	-361
▁kan	-362
▁mer	-363
amma	-364
ance	-365
▁seiz	-366
▁rece	-367
▁6	-368
nā	-369
▁goods	-370
▁mercha	-371
ans	-372
mal	-373
ived	-374
▁pri	-375
aš	-376
▁sh	-377
uct	-378
▁15	-379
qu	-380
ant	-381
▁left	-382
▁eponym	-383
▁represent	-384
sw	-385
▁answ	-386
ub	-387
esh	-388
▁entr	-389
▁what	-390
▁kanesh	-391
▁accord	-392
▁entrust	-393
▁j	-394
▁sent	-395
▁elamma	-396
ell	-397
ney	-398
▁about	-399
▁should	-400
▁tablets	-401
pī	-402
ue	-403
pen	-404
ck	-405
.66	-406
ceed	-407
laim	-408
.6666	-409
▁price	-410
▁set	-411
ment	-412
▁their	-413
▁claim	-414
▁af	-415
▁1.5	-416
▁who	-417
▁att	-418
▁proceed	-419
qēp	-420
▁wr	-421
▁belonging	-422
ard	-423
ses	-424
▁representat	-425
▁donkeys	-426
šu	-427
▁eponymy	-428
of	-429
▁answered	-430
▁make	-431
ūr	-432
ann	-433
ame	-434
▁ad	-435
▁la	-436
▁x	-437
ise	-438
▁ikū	-439
▁inv	-440
▁ass	-441
▁these	-442
▁any	-443
num	-444
▁but	-445
▁trans	-446
ear	-447
▁pl	-448
▁0.3333	-449
ied	-450
ount	-451
▁debt	-452
▁un	-453
▁received	-454
▁took	-455
▁lā	-456
▁/	-457
▁ar	-458
▁again	-459
▁merchant	-460
▁can	-461
▁8	-462
▁had	-463
ol	-464
ger	-465
▁accordance	-466
āt	-467
▁day	-468
▁sealed	-469
textiles	-470
pe	-471
▁qu	-472
▁entrusted	-473
āl	-474
very	-475
bēlum	-476
ic	-477
amass	-478
extile	-479
▁seized	-480
art	-481
▁su	-482
▁wor	-483
▁word	-484
▁against	-485
ud	-486
orney	-487
te	-488
▁7	-489
ers	-490
uwa	-491
▁attorney	-492
ally	-493
▁pur	-494
str	-495
▁up	-496
struct	-497
▁transport	-498
ence	-499
▁gold	-500
▁ir	-501
▁cle	-502
▁invest	-503
bum	-504
▁representatives	-505
▁enna	-506
ee	-507
▁clear	-508
ge	-509
the	-510
nu	-511
ings	-512
▁bēl	-513
▁pres	-514
▁presence	-515
▁witnesses	-516
▁'	-517
▁car	-518
erv	-519
▁12	-520
able	-521
▁brothers	-522
▁z	-523
▁her	-524
▁seals	-525
▁ikūn	-526
ra	-527
pit	-528
et	-529
▁off	-530
kūbum	-531
▁test	-532
ors	-533
ilah	-534
▁arr	-535
▁har	-536
▁serv	-537
co	-538
▁im	-539
imitt	-540
malik	-541
▁until	-542
▁20	-543
▁kul	-544
dā	-545
▁il	-546
▁thus	-547
▁v	-548
▁wo	-549
ase	-550
▁lo	-551
rote	-552
▁wrote	-553
sel	-554
šalim	-555
imittī	-556
pos	-557
ere	-558
urn	-559
▁bu	-560
▁tw	-561
▁instruct	-562
ib	-563
ail	-564
▁bl	-565
ions	-566
▁dag	-567
▁may	-568
lease	-569
pital	-570
šam	-571
▁did	-572
▁dagger	-573
imony	-574
▁were	-575
▁expen	-576
▁servant	-577
▁no	-578
nādā	-579
▁rest	-580
▁assur	-581
uš	-582
▁iš	-583
▁ennānum	-584
oss	-585
▁wh	-586
ated	-587
▁over	-588
▁within	-589
▁testimony	-590
kk	-591
ert	-592
hum	-593
▁30	-594
▁fo	-595
▁wool	-596
▁itūr	-597
▁letter	-598
!"	-599
ade	-600
▁textile	-601
▁where	-602
▁capital	-603
▁tim	-604
▁care	-605
amassī	-606
▁proceeds	-607
all	-608
▁kur	-609
▁rate	-610
urther	-611
hed	-612
oth	-613
son	-614
▁rem	-615
▁[...	-616
▁made	-617
di	-618
▁ur	-619
▁poss	-620
rum	-621
▁further	-622
lf	-623
▁sl	-624
anum	-625
▁year	-626
ice	-627
ree	-628
▁res	-629
posit	-630
ach	-631
▁slave	-632
▁brings	-633
▁mannum	-634
▁purcha	-635
iss	-636
red	-637
anna	-638
king	-639
▁com	-640
▁black	-641
?)	-642
▁own	-643
gether	-644
▁weeks	-645
▁deposit	-646
utum	-647
▁ann	-648
▁owe	-649
▁two	-650
▁kuliya	-651
▁together	-652
abi	-653
▁sons	-654
▁saying	-655
▁gr	-656
▁li	-657
▁due	-658
▁asse	-659
▁cert	-660
▁miss	-661
▁pilah	-662
▁account	-663
▁after	-664
▁investors	-665
age	-666
ana	-667
▁gu	-668
self	-669
vail	-670
▁aff	-671
▁name	-672
un	-673
ahšu	-674
▁avail	-675
▁expenses	-676
to	-677
avan	-678
pīya	-679
▁buy	-680
ality	-681
ession	-682
▁certif	-683
▁caravan	-684
▁available	-685
ady	-686
tak	-687
▁dur	-688
▁mat	-689
▁ter	-690
▁writ	-691
▁working	-692
ili	-693
tain	-694
▁adad	-695
▁some	-696
▁grain	-697
▁quality	-698
wn	-699
old	-700
uli	-701
adad	-702
ckon	-703
▁lord	-704
▁sett	-705
▁ištar	-706
▁matter	-707
▁person	-708
▁reckon	-709
eep	-710
ṣill	-711
▁keep	-712
▁remain	-713
▁thereof	-714
?"	-715
em	-716
ta	-717
ely	-718
ṣur	-719
▁ord	-720
▁mess	-721
▁sold	-722
one	-723
▁ra	-724
▁sw	-725
nāya	-726
▁abu	-727
▁tak	-728
▁term	-729
▁added	-730
▁harness	-731
▁possession	-732
▁ah	-733
illil	-734
▁bēlum	-735
),	-736
.8	-737
kī	-738
ian	-739
ilum	-740
▁part	-741
▁sell	-742
.83333	-743
▁0.6666	-744
▁reckoned	-745
iq	-746
ine	-747
ward	-748
▁fir	-749
▁men	-750
▁uṣur	-751
▁very	-752
lamassī	-753
ša	-754
▁9	-755
▁dam	-756
▁does	-757
▁certified	-758
▁proceedings	-759
ry	-760
int	-761
▁dad	-762
▁kuz	-763
▁why	-764
▁..."	-765
anding	-766
▁taken	-767
▁import	-768
ince	-769
oint	-770
takl	-771
thing	-772
▁hear	-773
cl	-774
rē	-775
hir	-776
led	-777
ore	-778
dict	-779
gent	-780
▁dis	-781
▁giv	-782
▁hin	-783
▁ver	-784
▁both	-785
▁conf	-786
▁sing	-787
▁aluwa	-788
▁months	-789
▁verdict	-790
▁personally	-791
▁instructions	-792
mb	-793
idī	-794
▁plus	-795
▁leave	-796
▁write	-797
standing	-798
eed	-799
ind	-800
pis	-801
▁spe	-802
▁case	-803
▁colle	-804
▁every	-805
▁lapis	-806
▁single	-807
▁outstanding	-808
li	-809
(?)	-810
ida	-811
▁11	-812
▁13	-813
rabi	-814
▁che	-815
▁ext	-816
ither	-817
▁since	-818
▁40	-819
▁mu	-820
naya	-821
▁ind	-822
▁hold	-823
▁maid	-824
▁[...]	-825
ala	-826
ife	-827
now	-828
▁sp	-829
ātum	-830
▁2.5	-831
humit	-832
▁back	-833
▁given	-834
▁claims	-835
▁urgent	-836
▁durhumit	-837
▁god	-838
▁either	-839
āku	-840
ddum	-841
zuli	-842
▁bec	-843
▁ṭāb	-844
▁stat	-845
▁wife	-846
▁assemb	-847
▁lazuli	-848
▁purchases	-849
).	-850
▁ku	-851
acks	-852
▁app	-853
▁del	-854
▁fav	-855
redit	-856
▁assembly	-857
om	-858
use	-859
ušha	-860
▁tar	-861
▁much	-862
▁first	-863
▁credit	-864
ušhaddum	-865
▁missive	-866
iff	-867
▁jar	-868
▁well	-869
▁damiq	-870
zu	-871
kuwa	-872
ātim	-873
▁each	-874
▁lead	-875
▁raise	-876
taklāku	-877
▁please	-878
▁deposited	-879
aw	-880
▁17	-881
▁ak	-882
hose	-883
▁kut	-884
assur	-885
▁stay	-886
▁anything	-887
▁servants	-888
form	-889
šamaš	-890
▁adida	-891
▁seize	-892
du	-893
▁,	-894
air	-895
dan	-896
▁ib	-897
part	-898
▁bur	-899
▁iron	-900
▁trad	-901
▁share	-902
▁those	-903
▁amount	-904
▁settled	-905
ani	-906
ist	-907
tax	-908
llow	-909
pect	-910
šamš	-911
▁ask	-912
▁get	-913
ahšuš	-914
▁down	-915
▁know	-916
▁time	-917
▁joint	-918
▁follow	-919
ep	-920
ālik	-921
▁bal	-922
▁ret	-923
▁sat	-924
itten	-925
mahir	-926
wardī	-927
šamšī	-928
▁written	-929
.""	-930
ary	-931
cif	-932
irl	-933
tum	-934
▁ro	-935
mall	-936
▁kar	-937
▁šam	-938
mālik	-939
▁cost	-940
▁open	-941
▁small	-942
ēn	-943
ama	-944
wit	-945
▁bo	-946
ight	-947
cific	-948
▁return	-949
▁amurrum	-950
▁collect	-951
uty	-952
half	-953
ised	-954
ister	-955
iziya	-956
awātim	-957
▁tariff	-958
▁release	-959
▁stating	-960
tik	-961
arik	-962
▁sho	-963
alace	-964
▁duty	-965
▁issu	-966
▁pack	-967
▁kurub	-968
▁partn	-969
▁šamaš	-970
▁palace	-971
▁wahšuš	-972
cifically	-973
ig	-974
pl	-975
nds	-976
ons	-977
row	-978
war	-979
way	-980
▁bar	-981
arant	-982
tikal	-983
▁iliya	-984
▁inform	-985
▁guarant	-986
▁hinnāya	-987
▁kuziziya	-988
▁wahšušana	-989
az	-990
ide	-991
▁id	-992
▁buz	-993
▁now	-994
ndise	-995
▁cont	-996
▁delay	-997
▁sacks	-998
▁behalf	-999
▁merchandise	-1000
▁specifically	-1001
ts	-1002
aba	-1003
day	-1004
isf	-1005
nam	-1006
▁da	-1007
išum	-1008
▁hur	-1009
▁šēp	-1010
▁half	-1011
▁prom	-1012
alliya	-1013
▁check	-1014
▁other	-1015
▁worth	-1016
▁assist	-1017
▁favour	-1018
▁myself	-1019
▁satisf	-1020
▁washed	-1021
af	-1022
ast	-1023
ause	-1024
ever	-1025
▁shi	-1026
▁away	-1027
▁1.3333	-1028
app	-1029
irm	-1030
▁14	-1031
▁22	-1032
▁25	-1033
▁ev	-1034
alum	-1035
riya	-1036
ubur	-1037
▁act	-1038
▁dan	-1039
ately	-1040
▁into	-1041
▁jour	-1042
▁šukk	-1043
▁ataya	-1044
▁quest	-1045
▁journey	-1046
▁šukkutum	-1047
ath	-1048
šar	-1049
▁16	-1050
▁uš	-1051
▁ded	-1052
▁šum	-1053
▁came	-1054
▁days	-1055
▁trav	-1056
▁heard	-1057
▁offer	-1058
textile	-1059
▁affair	-1060
▁arrive	-1061
▁office	-1062
▁sister	-1063
▁because	-1064
▁confirm	-1065
▁message	-1066
▁receive	-1067
'.	-1068
ie	-1069
ugh	-1070
ves	-1071
▁18	-1072
ages	-1073
ress	-1074
▁han	-1075
ughter	-1076
▁words	-1077
▁deduct	-1078
▁respect	-1079
▁bringing	-1080
▁question	-1081
nū	-1082
ley	-1083
▁1⁄	-1084
come	-1085
inal	-1086
nūnu	-1087
▁exc	-1088
▁how	-1089
ennam	-1090
other	-1091
qēpum	-1092
▁pass	-1093
silver	-1094
▁agree	-1095
▁barley	-1096
▁aššuriš	-1097
▁daughter	-1098
orn	-1099
āya	-1100
▁ob	-1101
bani	-1102
▁dar	-1103
▁less	-1104
▁thin	-1105
ention	-1106
▁still	-1107
▁would	-1108
▁follows	-1109
▁promised	-1110
ood	-1111
qar	-1112
ron	-1113
▁cl	-1114
▁rec	-1115
ility	-1116
onsib	-1117
▁elāl	-1118
▁gate	-1119
▁lady	-1120
copper	-1121
iliated	-1122
▁excise	-1123
▁cleared	-1124
▁whether	-1125
▁accounts	-1126
▁affiliated	-1127
▁.	-1128
ial	-1129
kēn	-1130
ulu	-1131
hing	-1132
▁bre	-1133
ation	-1134
▁...,	-1135
▁anna	-1136
▁resp	-1137
▁went	-1138
▁ṣill	-1139
▁extra	-1140
▁kutān	-1141
▁today	-1142
▁according	-1143
],	-1144
ced	-1145
ile	-1146
mor	-1147
girl	-1148
rann	-1149
▁saf	-1150
▁val	-1151
ition	-1152
▁bought	-1153
▁arrived	-1154
▁partner	-1155
▁without	-1156
▁responsib	-1157
▁<	-1158
ock	-1159
par	-1160
▁24	-1161
▁zu	-1162
with	-1163
▁vot	-1164
▁šal	-1165
pilah	-1166
▁hanu	-1167
▁oath	-1168
arment	-1169
▁wheat	-1170
▁indeed	-1171
▁votive	-1172
▁representative	-1173
act	-1174
add	-1175
cur	-1176
fit	-1177
hes	-1178
▁sc	-1179
clud	-1180
ront	-1181
sent	-1182
▁cop	-1183
▁fee	-1184
▁way	-1185
▁apart	-1186
▁order	-1187
▁separ	-1188
▁terms	-1189
▁ikūnum	-1190
▁includ	-1191
▁trader	-1192
▁purušhaddum	-1193
lu	-1194
ni	-1195
uh	-1196
ire	-1197
ose	-1198
uza	-1199
▁50	-1200
▁pū	-1201
▁ru	-1202
▁ahu	-1203
▁sal	-1204
▁too	-1205
▁even	-1206
▁fine	-1207
morand	-1208
▁least	-1209
▁wrapp	-1210
▁years	-1211
▁annina	-1212
▁detain	-1213
▁0.83333	-1214
▁arrives	-1215
▁memorand	-1216
ūq	-1217
ads	-1218
gry	-1219
atol	-1220
emūq	-1221
▁reg	-1222
enary	-1223
hubur	-1224
ustom	-1225
waqar	-1226
▁food	-1227
▁held	-1228
▁pūšu	-1229
▁sukk	-1230
▁produ	-1231
▁three	-1232
▁1.6666	-1233
▁anatol	-1234
▁custom	-1235
▁irišum	-1236
▁lamass	-1237
▁profit	-1238
▁bēlānum	-1239
▁plenary	-1240
▁including	-1241
▁separately	-1242
▁ṣ	-1243
ara	-1244
arn	-1245
uba	-1246
šad	-1247
ater	-1248
land	-1249
▁1⁄2	-1250
▁lit	-1251
▁mar	-1252
▁nar	-1253
▁plac	-1254
▁ship	-1255
▁among	-1256
▁nothing	-1257
▁customers	-1258
be	-1259
atu	-1260
ple	-1261
rie	-1262
-...	-1263
piya	-1264
▁4.5	-1265
▁dec	-1266
rannī	-1267
▁alul	-1268
▁turn	-1269
▁whom	-1270
▁ababa	-1271
▁angry	-1272
▁elāli	-1273
▁enter	-1274
▁lords	-1275
▁refus	-1276
▁spent	-1277
▁stand	-1278
▁state	-1279
▁swear	-1280
▁while	-1281
▁dadiya	-1282
▁travel	-1283
▁contain	-1284
▁creditor	-1285
▁deducted	-1286
▁overland	-1287
▁wrapping	-1288
▁agreement	-1289
ff	-1290
ii	-1291
pt	-1292
ure	-1293
cond	-1294
hara	-1295
liya	-1296
▁100	-1297
▁7.5	-1298
▁bad	-1299
▁kub	-1300
▁anah	-1301
▁rule	-1302
▁suen	-1303
inalam	-1304
▁placed	-1305
▁zukuwa	-1306
▁balance	-1307
▁ušinalam	-1308
▁wherever	-1309
▁attention	-1310
!'	-1311
we	-1312
uzi	-1313
hhum	-1314
lace	-1315
sten	-1316
▁obt	-1317
abiya	-1318
iliya	-1319
▁...]	-1320
▁dark	-1321
▁frie	-1322
▁lost	-1323
▁soon	-1324
selves	-1325
▁guard	-1326
▁become	-1327
▁hahhum	-1328
▁obtain	-1329
▁second	-1330
▁alulaya	-1331
▁staying	-1332
▁addition	-1333
▁lamassutum	-1334
".	-1335
mī	-1336
ru	-1337
fic	-1338
▁45	-1339
▁az	-1340
▁er	-1341
▁azu	-1342
▁uku	-1343
▁šar	-1344
emūqī	-1345
enger	-1346
▁cons	-1347
▁ibni	-1348
išhara	-1349
▁sworn	-1350
▁listen	-1351
▁passed	-1352
▁checked	-1353
▁messenger	-1354
▁questioned	-1355
.)	-1356
ata	-1357
ect	-1358
yes	-1359
▁21	-1360
▁bor	-1361
▁ili	-1362
▁oil	-1363
▁pre	-1364
▁tum	-1365
stock	-1366
utaya	-1367
▁book	-1368
▁comp	-1369
▁died	-1370
▁disp	-1371
▁says	-1372
▁show	-1373
▁concl	-1374
▁times	-1375
▁mother	-1376
▁belongs	-1377
▁delayed	-1378
▁lamassī	-1379
▁burušhaddum	-1380
!""	-1381
han	-1382
ies	-1383
lem	-1384
ṣul	-1385
▁fe	-1386
▁kū	-1387
▁um	-1388
▁gal	-1389
▁inn	-1390
▁sue	-1391
▁wal	-1392
balum	-1393
▁jars	-1394
▁king	-1395
▁kura	-1396
▁agent	-1397
▁akuza	-1398
▁later	-1399
▁place	-1400
▁ready	-1401
▁twice	-1402
▁assets	-1403
▁šalatu	-1404
▁entered	-1405
▁expense	-1406
▁purchase	-1407
▁yourself	-1408
▁satisfied	-1409
▁statement	-1410
ia	-1411
lab	-1412
rēṣ	-1413
tab	-1414
acke	-1415
alid	-1416
vert	-1417
▁3.5	-1418
▁enah	-1419
▁hand	-1420
▁hire	-1421
▁lulu	-1422
▁packe	-1423
▁value	-1424
ašrannī	-1425
▁borrow	-1426
▁hurama	-1427
▁orders	-1428
▁settle	-1429
▁convert	-1430
▁payment	-1431
▁obstruct	-1432
?]	-1433
ap	-1434
do	-1435
oy	-1436
ibb	-1437
les	-1438
rad	-1439
▁wa	-1440
...,	-1441
bēlī	-1442
hind	-1443
kiya	-1444
mina	-1445
plur	-1446
šarr	-1447
▁ear	-1448
▁šāt	-1449
ached	-1450
urnat	-1451
▁inah	-1452
▁loan	-1453
absent	-1454
▁abiya	-1455
▁ennum	-1456
▁behind	-1457
▁kutānu	-1458
▁conclud	-1459
▁tumliya	-1460
▁kuburnat	-1461
▁offerings	-1462
▁šalatuwar	-1463
▁sukkalliya	-1464
▁responsibility	-1465
.'	-1466
.1	-1467
mit	-1468
ous	-1469
tal	-1470
ved	-1471
you	-1472
▁35	-1473
▁āl	-1474
▁ša	-1475
ible	-1476
pped	-1477
ried	-1478
▁bag	-1479
▁cha	-1480
▁iku	-1481
▁kud	-1482
▁put	-1483
▁...-	-1484
▁cour	-1485
▁five	-1486
▁once	-1487
▁safe	-1488
▁zuba	-1489
▁šumi	-1490
▁appro	-1491
▁comes	-1492
▁wages	-1493
▁friend	-1494
▁hinnaya	-1495
▁invalid	-1496
▁present	-1497
dī	-1498
lī	-1499
▁q	-1500
bod	-1501
ish	-1502
not	-1503
zua	-1504
▁si	-1505
ased	-1506
body	-1507
clar	-1508
kkad	-1509
reed	-1510
▁ago	-1511
▁baz	-1512
▁env	-1513
▁kūn	-1514
▁top	-1515
▁tūr	-1516
▁yet	-1517
▁...;	-1518
▁acqu	-1519
▁imdī	-1520
▁inst	-1521
▁long	-1522
▁look	-1523
▁more	-1524
▁rele	-1525
▁akkad	-1526
▁hands	-1527
▁secur	-1528
▁sheep	-1529
▁2.3333	-1530
▁agreed	-1531
▁answer	-1532
▁breads	-1533
▁declar	-1534
▁manana	-1535
▁record	-1536
▁fathers	-1537
▁produce	-1538
▁reached	-1539
▁instruction	-1540
ces	-1541
fer	-1542
ign	-1543
mut	-1544
ull	-1545
▁23	-1546
▁aš	-1547
▁fu	-1548
▁ta	-1549
....	-1550
assa	-1551
daya	-1552
lier	-1553
ound	-1554
reat	-1555
▁abī	-1556
▁mak	-1557
▁sad	-1558
▁ṣil	-1559
istar	-1560
▁copy	-1561
▁road	-1562
▁along	-1563
▁atata	-1564
▁being	-1565
▁anyone	-1566
▁became	-1567
▁grains	-1568
▁opened	-1569
▁jointly	-1570
▁satisfy	-1571
▁akkadian	-1572
▁borrowed	-1573
▁anatolian	-1574
▁investment	-1575
mu	-1576
amm	-1577
bil	-1578
due	-1579
dān	-1580
whe	-1581
▁uz	-1582
cess	-1583
more	-1584
ppil	-1585
rēṣī	-1586
suit	-1587
ālum	-1588
šadu	-1589
▁exp	-1590
▁pat	-1591
▁sac	-1592
▁str	-1593
ernal	-1594
ready	-1595
▁cond	-1596
▁free	-1597
▁full	-1598
▁meet	-1599
▁only	-1600
▁real	-1601
▁wait	-1602
▁šuli	-1603
▁ibaya	-1604
▁track	-1605
▁uraya	-1606
▁3.3333	-1607
▁booked	-1608
▁innaya	-1609
▁kukuwa	-1610
▁narrow	-1611
▁already	-1612
▁earlier	-1613
▁garment	-1614
▁salliya	-1615
▁confront	-1616
▁paternal	-1617
▁whatever	-1618
▁guarantor	-1619
▁memoranda	-1620
▁furthermore	-1621
-[	-1622
eh	-1623
gg	-1624
na	-1625
ze	-1626
cus	-1627
ept	-1628
ins	-1629
uly	-1630
atch	-1631
iece	-1632
ling	-1633
onze	-1634
ribe	-1635
uman	-1636
your	-1637
ārum	-1638
▁dud	-1639
▁enc	-1640
▁law	-1641
▁led	-1642
▁mal	-1643
▁see	-1644
▁suc	-1645
▁sur	-1646
▁tit	-1647
▁tri	-1648
▁gent	-1649
▁kept	-1650
▁mind	-1651
▁mine	-1652
▁ummī	-1653
▁asked	-1654
▁court	-1655
▁envoy	-1656
▁reach	-1657
▁truly	-1658
▁bronze	-1659
▁dadaya	-1660
▁during	-1661
▁extrad	-1662
▁kurara	-1663
▁report	-1664
▁scribe	-1665
▁weight	-1666
▁gentlem	-1667
▁lawsuit	-1668
▁success	-1669
▁released	-1670
▁shipment	-1671
▁collected	-1672
aṣ	-1673
666	-1674
ext	-1675
mon	-1676
rat	-1677
uzu	-1678
ššu	-1679
ūlī	-1680
cuss	-1681
dder	-1682
fine	-1683
irik	-1684
mugg	-1685
tamm	-1686
▁būr	-1687
▁hat	-1688
▁kuk	-1689
.1666	-1690
anced	-1691
▁12.5	-1692
▁bags	-1693
▁bund	-1694
▁inde	-1695
▁uzua	-1696
▁šupp	-1697
arnian	-1698
ṣulūlī	-1699
▁cover	-1700
▁ikupp	-1701
▁illil	-1702
▁karum	-1703
▁pirik	-1704
▁smugg	-1705
▁swore	-1706
▁tithe	-1707
garment	-1708
▁depart	-1709
▁fodder	-1710
šarrassa	-1711
▁colleag	-1712
▁discuss	-1713
▁refused	-1714
▁abarnian	-1715
▁pirikann	-1716
▁possible	-1717
▁security	-1718
▁yourselves	-1719
eg	-1720
pa	-1721
sh	-1722
▁;	-1723
dum	-1724
ead	-1725
fem	-1726
ild	-1727
per	-1728
she	-1729
tin	-1730
uša	-1731
▁31	-1732
▁33	-1733
assu	-1734
bted	-1735
hird	-1736
ibbi	-1737
ious	-1738
ival	-1739
mand	-1740
note	-1741
that	-1742
them	-1743
▁5.5	-1744
▁est	-1745
▁sub	-1746
▁zal	-1747
addle	-1748
aliya	-1749
ament	-1750
asiya	-1751
laban	-1752
▁ewar	-1753
▁girl	-1754
▁many	-1755
▁...""	-1756
▁accru	-1757
▁adada	-1758
▁carry	-1759
▁count	-1760
▁elaya	-1761
▁front	-1762
▁yours	-1763
witness	-1764
▁encour	-1765
▁formal	-1766
▁making	-1767
▁priest	-1768
▁things	-1769
▁kudātum	-1770
▁approach	-1771
▁declared	-1772
▁indebted	-1773
▁invested	-1774
▁successor	-1775
▁testament	-1776
].	-1777
mū	-1778
ām	-1779
aku	-1780
ges	-1781
iki	-1782
▁27	-1783
▁ap	-1784
▁iz	-1785
ched	-1786
from	-1787
icul	-1788
iver	-1789
mūta	-1790
pens	-1791
ract	-1792
room	-1793
ures	-1794
ving	-1795
wood	-1796
▁anu	-1797
▁dān	-1798
▁ins	-1799
▁jud	-1800
▁lev	-1801
▁los	-1802
▁waš	-1803
abrat	-1804
imuša	-1805
othes	-1806
posal	-1807
there	-1808
▁10.5	-1809
▁else	-1810
▁fees	-1811
▁hall	-1812
▁lest	-1813
▁prov	-1814
▁sale	-1815
▁same	-1816
▁trip	-1817
anātum	-1818
muttab	-1819
ulānum	-1820
▁cheat	-1821
▁could	-1822
▁holds	-1823
▁recie	-1824
▁regul	-1825
▁sacri	-1826
▁shoes	-1827
▁total	-1828
▁trust	-1829
▁tūram	-1830
▁uzuwa	-1831
▁waldi	-1832
▁šumma	-1833
▁appear	-1834
▁baziya	-1835
▁losses	-1836
▁saddle	-1837
mūtappil	-1838
▁favours	-1839
▁instead	-1840
▁kutānus	-1841
▁remains	-1842
▁ṣilliya	-1843
muttabbil	-1844
▁balanced	-1845
▁missives	-1846
▁obtained	-1847
▁offering	-1848
▁transfer	-1849
▁concluded	-1850
▁container	-1851
▁ewarimuša	-1852
▁instructed	-1853
▁memorandum	-1854
▁transported	-1855
hy	-1856
▁?	-1857
▁—	-1858
ali	-1859
con	-1860
eld	-1861
why	-1862
▁28	-1863
▁36	-1864
▁37	-1865
▁42	-1866
▁55	-1867
▁ch	-1868
amur	-1869
asis	-1870
ield	-1871
oric	-1872
seal	-1873
▁cor	-1874
▁den	-1875
▁lot	-1876
▁spo	-1877
▁tuh	-1878
girls	-1879
libbi	-1880
money	-1881
orter	-1882
pport	-1883
ument	-1884
ušhat	-1885
wards	-1886
▁eniš	-1887
▁fire	-1888
▁firm	-1889
▁four	-1890
▁iliš	-1891
▁mete	-1892
▁need	-1893
▁pins	-1894
▁pled	-1895
▁reas	-1896
▁save	-1897
eponym	-1898
▁blood	-1899
▁carri	-1900
▁child	-1901
▁funds	-1902
▁great	-1903
▁indic	-1904
▁kulum	-1905
▁loans	-1906
▁mannu	-1907
▁store	-1908
▁timel	-1909
▁zalpa	-1910
eponymy	-1911
tammuzi	-1912
▁copies	-1913
▁decide	-1914
▁demand	-1915
▁erišum	-1916
▁idnaya	-1917
▁idnāya	-1918
▁packet	-1919
▁strong	-1920
ušhattum	-1921
▁clothes	-1922
▁express	-1923
▁galdaya	-1924
▁karriya	-1925
▁shipped	-1926
▁writing	-1927
▁disposal	-1928
▁meteoric	-1929
▁returned	-1930
▁following	-1931
▁harnessor	-1932
▁burušhattum	-1933
▁responsible	-1934
):	-1935
pi	-1936
rī	-1937
ti	-1938
up	-1939
ada	-1940
ash	-1941
dam	-1942
ged	-1943
hur	-1944
igh	-1945
ite	-1946
kur	-1947
nim	-1948
oub	-1949
pri	-1950
rap	-1951
ren	-1952
▁32	-1953
▁46	-1954
▁dr	-1955
▁ed	-1956
▁em	-1957
▁ēn	-1958
amas	-1959
atum	-1960
give	-1961
ider	-1962
ises	-1963
rama	-1964
when	-1965
▁bab	-1966
▁eff	-1967
▁luh	-1968
▁nim	-1969
▁tax	-1970
▁tem	-1971
▁ten	-1972
▁war	-1973
▁wis	-1974
damiq	-1975
icial	-1976
inaya	-1977
massu	-1978
nimrī	-1979
▁22.5	-1980
▁fact	-1981
▁fail	-1982
▁like	-1983
▁litu	-1984
▁ones	-1985
▁reli	-1986
▁stri	-1987
▁ēnah	-1988
amassi	-1989
itions	-1990
shekel	-1991
▁alive	-1992
▁basis	-1993
▁cloth	-1994
▁going	-1995
▁harsh	-1996
▁lipit	-1997
▁mamma	-1998
▁yield	-1999
lamassi	-2000
▁amriya	-2001
▁asānum	-2002
▁effect	-2003
▁hanunu	-2004
▁levied	-2005
▁peruwa	-2006
▁raises	-2007
▁reason	-2008
▁temple	-2009
▁acquire	-2010
▁appoint	-2011
▁complet	-2012
▁conduct	-2013
▁himself	-2014
▁missing	-2015
▁overdue	-2016
▁refuses	-2017
▁travell	-2018
▁tuhpiya	-2019
▁amounted	-2020
▁children	-2021
▁contract	-2022
▁partners	-2023
▁reliable	-2024
▁gentleman	-2025
▁pirikannus	-2026
▁representing	-2027
pk	-2028
▁+	-2029
ace	-2030
akn	-2031
but	-2032
ize	-2033
pay	-2034
ppy	-2035
tim	-2036
ued	-2037
šum	-2038
▁19	-2039
▁26	-2040
▁48	-2041
...]	-2042
allu	-2043
erve	-2044
gold	-2045
ikku	-2046
ired	-2047
oths	-2048
ough	-2049
ullu	-2050
what	-2051
ying	-2052
▁6.5	-2053
▁box	-2054
▁imp	-2055
▁min	-2056
▁vii	-2057
allim	-2058
asure	-2059
ellat	-2060
ision	-2061
numan	-2062
onial	-2063
plain	-2064
▁adud	-2065
▁gone	-2066
▁head	-2067
▁išme	-2068
▁luzi	-2069
▁next	-2070
▁prev	-2071
▁remo	-2072
▁sack	-2073
▁sick	-2074
▁stor	-2075
▁than	-2076
▁want	-2077
haniya	-2078
icular	-2079
▁abaya	-2080
▁agiya	-2081
▁alone	-2082
▁bread	-2083
▁daraš	-2084
▁favor	-2085
▁lives	-2086
▁lullu	-2087
▁nimar	-2088
▁valid	-2089
▁weigh	-2090
▁worry	-2091
contain	-2092
▁contin	-2093
▁sadaya	-2094
▁ṣilulu	-2095
▁affairs	-2096
▁compens	-2097
▁contest	-2098
▁deliver	-2099
▁letters	-2100
▁package	-2101
▁traders	-2102
▁clothing	-2103
▁colonial	-2104
▁consider	-2105
▁firewood	-2106
▁kulumaya	-2107
▁produced	-2108
▁saddlecl	-2109
▁encourage	-2110
▁smuggling	-2111
▁timelkiya	-2112
▁containers	-2113
▁particular	-2114
▁profitable	-2115
▁regulation	-2116
ca	-2117
lo	-2118
nī	-2119
wē	-2120
ye	-2121
ši	-2122
arr	-2123
dag	-2124
hie	-2125
ila	-2126
lit	-2127
nel	-2128
raw	-2129
ula	-2130
wor	-2131
▁1:	-2132
▁qa	-2133
airs	-2134
aves	-2135
erty	-2136
fice	-2137
keep	-2138
orns	-2139
over	-2140
qaya	-2141
road	-2142
used	-2143
▁abi	-2144
▁alp	-2145
▁eye	-2146
▁got	-2147
▁idi	-2148
▁kap	-2149
▁kun	-2150
▁luz	-2151
▁nab	-2152
▁rob	-2153
▁sav	-2154
▁sla	-2155
▁tre	-2156
aknak	-2157
ative	-2158
house	-2159
inary	-2160
itaya	-2161
ittle	-2162
kurub	-2163
ouble	-2164
perty	-2165
stone	-2166
unity	-2167
ṣilli	-2168
▁eyes	-2169
▁fall	-2170
▁gods	-2171
▁just	-2172
▁sear	-2173
▁star	-2174
cument	-2175
ressed	-2176
weight	-2177
▁defic	-2178
▁incur	-2179
▁leads	-2180
▁money	-2181
capital	-2182
ignment	-2183
taklaku	-2184
▁acorns	-2185
▁apiece	-2186
▁bundle	-2187
▁envoys	-2188
▁gather	-2189
▁judges	-2190
▁little	-2191
▁opport	-2192
▁safely	-2193
▁submit	-2194
▁tutaya	-2195
▁wishes	-2196
▁accrued	-2197
▁certify	-2198
▁dispose	-2199
▁hearing	-2200
▁mention	-2201
▁packets	-2202
▁service	-2203
▁sickles	-2204
▁complain	-2205
▁decision	-2206
▁dispatch	-2207
▁hanaknak	-2208
▁investor	-2209
▁moreover	-2210
▁official	-2211
▁ordinary	-2212
▁previous	-2213
▁property	-2214
▁colleague	-2215
▁converted	-2216
▁wašhaniya	-2217
▁consignment	-2218
▁opportunity	-2219
--	-2220
];	-2221
gs	-2222
po	-2223
ss	-2224
uq	-2225
uṣ	-2226
ād	-2227
āš	-2228
0.5	-2229
aṣi	-2230
bel	-2231
ini	-2232
ior	-2233
ken	-2234
lil	-2235
oun	-2236
▁41	-2237
▁60	-2238
▁es	-2239
abeh	-2240
hold	-2241
ians	-2242
murn	-2243
nada	-2244
ones	-2245
pack	-2246
ross	-2247
siya	-2248
then	-2249
will	-2250
zuzu	-2251
▁1⁄3	-2252
▁8.5	-2253
▁hid	-2254
▁hun	-2255
▁hus	-2256
▁obs	-2257
▁qui	-2258
▁sus	-2259
amtum	-2260
ester	-2261
happy	-2262
herit	-2263
murna	-2264
▁bear	-2265
▁bind	-2266
▁dada	-2267
▁diff	-2268
▁face	-2269
▁galg	-2270
▁goes	-2271
▁happ	-2272
▁karw	-2273
▁liab	-2274
▁maṣi	-2275
▁nabi	-2276
▁told	-2277
▁usur	-2278
inātum	-2279
nelian	-2280
▁abuwa	-2281
▁alili	-2282
▁allow	-2283
▁final	-2284
▁hired	-2285
▁never	-2286
▁pairs	-2287
▁scrap	-2288
▁short	-2289
▁spoke	-2290
▁third	-2291
▁šikku	-2292
▁ṣilli	-2293
▁2.6666	-2294
▁[...],	-2295
▁agents	-2296
▁bēliya	-2297
▁dudiki	-2298
▁export	-2299
▁having	-2300
▁liable	-2301
▁luzina	-2302
▁pledge	-2303
▁really	-2304
▁refuse	-2305
▁regard	-2306
▁slaves	-2307
▁šuppun	-2308
▁3.83333	-2309
▁aninaya	-2310
▁anupiya	-2311
▁damqaya	-2312
▁inherit	-2313
▁leading	-2314
▁married	-2315
▁observe	-2316
▁offered	-2317
▁returns	-2318
▁someone	-2319
▁trading	-2320
▁treated	-2321
▁unhappy	-2322
▁buzutaya	-2323
▁ikuppiya	-2324
▁somebody	-2325
▁allanātum	-2326
▁carnelian	-2327
▁continued	-2328
▁galgaliya	-2329
▁liability	-2330
▁therefore	-2331
▁guaranteed	-2332
▁guarantors	-2333
▁harnessors	-2334
);	-2335
ci	-2336
ea	-2337
ec	-2338
gr	-2339
ka	-2340
ki	-2341
kē	-2342
sa	-2343
tr	-2344
tī	-2345
ua	-2346
⁄6	-2347
abl	-2348
aka	-2349
are	-2350
ašš	-2351
der	-2352
eni	-2353
ety	-2354
him	-2355
lee	-2356
med	-2357
niš	-2358
pāl	-2359
rew	-2360
sed	-2361
sul	-2362
ulī	-2363
ūlu	-2364
▁34	-2365
▁[1	-2366
▁iv	-2367
▁pr	-2368
▁ul	-2369
ails	-2370
ject	-2371
kēnā	-2372
mith	-2373
pend	-2374
ring	-2375
sarr	-2376
send	-2377
ters	-2378
this	-2379
▁5⁄6	-2380
▁ahi	-2381
▁cut	-2382
▁edd	-2383
▁hou	-2384
▁met	-2385
▁nam	-2386
▁pie	-2387
▁sit	-2388
▁six	-2389
▁tiš	-2390
▁wag	-2391
▁wat	-2392
▁yes	-2393
▁zik	-2394
abaya	-2395
adiya	-2396
annot	-2397
ighed	-2398
inter	-2399
mīšar	-2400
nutum	-2401
pālil	-2402
respo	-2403
salim	-2404
worth	-2405
ššara	-2406
▁....	-2407
▁alth	-2408
▁asks	-2409
▁balṭ	-2410
▁beer	-2411
▁best	-2412
▁char	-2413
▁dead	-2414
▁deny	-2415
▁drew	-2416
▁flee	-2417
▁ilšu	-2418
▁kukk	-2419
▁quar	-2420
▁soft	-2421
▁wish	-2422
asures	-2423
sululi	-2424
ṣululī	-2425
▁belum	-2426
▁dress	-2427
▁ennān	-2428
▁gives	-2429
▁heart	-2430
▁hubur	-2431
▁lalum	-2432
▁litre	-2433
▁nails	-2434
▁resul	-2435
▁right	-2436
▁samas	-2437
▁saved	-2438
▁shown	-2439
▁speak	-2440
▁split	-2441
amurrum	-2442
formity	-2443
kēnātim	-2444
▁absent	-2445
▁broken	-2446
▁buzuwa	-2447
▁cannot	-2448
▁establ	-2449
▁exceed	-2450
▁hattum	-2451
▁houses	-2452
▁innāya	-2453
▁kutaya	-2454
▁others	-2455
▁pieces	-2456
▁render	-2457
▁stones	-2458
▁talhat	-2459
▁turned	-2460
▁watrum	-2461
▁ṣilūlu	-2462
sarrātim	-2463
▁carries	-2464
▁credits	-2465
▁fleeces	-2466
▁inspect	-2467
▁kapsiya	-2468
▁kuššara	-2469
▁matters	-2470
▁ordered	-2471
▁packing	-2472
▁station	-2473
▁towards	-2474
▁trouble	-2475
▁weighed	-2476
▁conclude	-2477
▁correspo	-2478
▁garments	-2479
▁informed	-2480
▁kannutum	-2481
▁tišmurna	-2482
▁additions	-2483
▁departure	-2484
▁sacrifice	-2485
▁anatolians	-2486
▁conformity	-2487
▁confronted	-2488
▁everything	-2489
▁kukkulānum	-2490
▁travellers	-2491
▁saddlecloths	-2492
▁undergarment	-2493
('	-2494
:1	-2495
bu	-2496
my	-2497
▁:	-2498
anu	-2499
att	-2500
cre	-2501
dug	-2502
dūr	-2503
eal	-2504
elf	-2505
idi	-2506
kum	-2507
men	-2508
ots	-2509
pro	-2510
pty	-2511
rem	-2512
rol	-2513
uma	-2514
ven	-2515
šur	-2516
▁43	-2517
▁56	-2518
▁[]	-2519
▁pe	-2520
▁tu	-2521
(?),	-2522
(?).	-2523
also	-2524
ckly	-2525
dāku	-2526
dūrī	-2527
empt	-2528
fort	-2529
ided	-2530
inum	-2531
irah	-2532
ited	-2533
maya	-2534
nded	-2535
ning	-2536
nuid	-2537
raid	-2538
side	-2539
taya	-2540
test	-2541
wail	-2542
wait	-2543
▁aki	-2544
▁buṣ	-2545
▁cup	-2546
▁dum	-2547
▁hud	-2548
▁iii	-2549
▁nan	-2550
▁nor	-2551
▁nāb	-2552
▁pan	-2553
▁sil	-2554
▁suk	-2555
▁use	-2556
▁šul	-2557
allum	-2558
cover	-2559
dugul	-2560
eated	-2561
grand	-2562
ified	-2563
labān	-2564
minas	-2565
nding	-2566
offic	-2567
packs	-2568
pkian	-2569
still	-2570
trans	-2571
uliya	-2572
uzaya	-2573
▁able	-2574
▁belt	-2575
▁boss	-2576
▁done	-2577
▁drin	-2578
▁ever	-2579
▁evil	-2580
▁fear	-2581
▁heir	-2582
▁last	-2583
▁load	-2584
▁qard	-2585
▁reed	-2586
▁scar	-2587
▁seek	-2588
▁tell	-2589
▁town	-2590
▁used	-2591
▁yaya	-2592
▁youn	-2593
aṣānum	-2594
ilkiya	-2595
porter	-2596
ulated	-2597
wēdāku	-2598
▁aduda	-2599
▁aguwa	-2600
▁akiya	-2601
▁cross	-2602
▁death	-2603
▁elālī	-2604
▁empty	-2605
▁force	-2606
▁keeps	-2607
▁means	-2608
▁minus	-2609
▁prove	-2610
▁robes	-2611
▁start	-2612
▁ulama	-2613
cuments	-2614
ilabrat	-2615
wailing	-2616
▁4.3333	-2617
▁5.3333	-2618
▁6.3333	-2619
▁6.6666	-2620
▁abroad	-2621
▁afraid	-2622
▁caused	-2623
▁compan	-2624
▁expend	-2625
▁hanana	-2626
▁irnuid	-2627
▁kasiya	-2628
▁kuziya	-2629
▁litres	-2630
▁native	-2631
▁panaka	-2632
▁shares	-2633
▁strict	-2634
official	-2635
▁16.6666	-2636
▁another	-2637
▁carried	-2638
▁dadānum	-2639
▁deficit	-2640
▁ilabrat	-2641
▁kuzallu	-2642
▁leather	-2643
▁protest	-2644
▁provide	-2645
▁quickly	-2646
▁thought	-2647
▁waiting	-2648
▁whoever	-2649
container	-2650
documents	-2651
witnessed	-2652
▁acquired	-2653
▁although	-2654
▁detained	-2655
▁exceeded	-2656
▁incurred	-2657
▁recieved	-2658
▁register	-2659
▁repeated	-2660
▁uṣurānum	-2661
▁appointed	-2662
▁bewailing	-2663
▁confirmed	-2664
▁extradite	-2665
▁guarantee	-2666
▁huraṣānum	-2667
▁indicated	-2668
▁remainder	-2669
▁timilkiya	-2670
▁additional	-2671
▁completion	-2672
▁inheritors	-2673
▁transferred	-2674
▁corresponding	-2675
",	-2676
+]	-2677
by	-2678
hu	-2679
ip	-2680
tu	-2681
abī	-2682
awa	-2683
bur	-2684
kāš	-2685
ues	-2686
uqi	-2687
yri	-2688
ziz	-2689
zur	-2690
ṭab	-2691
▁53	-2692
▁57	-2693
▁ii	-2694
▁mī	-2695
▁ol	-2696
▁po	-2697
▁te	-2698
▁xi	-2699
aged	-2700
arge	-2701
band	-2702
biya	-2703
bēli	-2704
cept	-2705
ecut	-2706
ffer	-2707
here	-2708
hief	-2709
ilšu	-2710
nunu	-2711
ople	-2712
oute	-2713
outh	-2714
paid	-2715
they	-2716
vest	-2717
▁arg	-2718
▁bus	-2719
▁cau	-2720
▁des	-2721
▁dād	-2722
▁esc	-2723
▁kak	-2724
▁lab	-2725
▁lay	-2726
▁leg	-2727
▁nak	-2728
▁old	-2729
▁ple	-2730
▁run	-2731
▁sik	-2732
▁sum	-2733
▁teg	-2734
▁til	-2735
▁zuz	-2736
again	-2737
anger	-2738
antly	-2739
emuqi	-2740
iaššu	-2741
iness	-2742
itted	-2743
kāšid	-2744
ranni	-2745
takil	-2746
third	-2747
tārum	-2748
veral	-2749
where	-2750
yrian	-2751
▁...:	-2752
▁11.5	-2753
▁13.5	-2754
▁17.5	-2755
▁akus	-2756
▁cash	-2757
▁elal	-2758
▁erra	-2759
▁heed	-2760
▁inns	-2761
▁libb	-2762
▁note	-2763
▁plot	-2764
▁pray	-2765
▁rabi	-2766
▁read	-2767
▁room	-2768
▁supp	-2769
▁talk	-2770
▁vill	-2771
▁šili	-2772
▁šulu	-2773
addiya	-2774
itting	-2775
quival	-2776
▁balṭu	-2777
▁broke	-2778
▁bēlat	-2779
▁chair	-2780
▁chief	-2781
▁drink	-2782
▁eddin	-2783
▁hides	-2784
▁izziz	-2785
▁knows	-2786
▁large	-2787
▁luhuz	-2788
▁mouth	-2789
▁needs	-2790
▁noted	-2791
▁piece	-2792
▁rings	-2793
▁route	-2794
▁scarf	-2795
▁spend	-2796
▁warad	-2797
▁whose	-2798
▁women	-2799
ekallim	-2800
emption	-2801
keeping	-2802
measure	-2803
uṣrannī	-2804
▁4.6666	-2805
▁8.6666	-2806
▁around	-2807
▁asanum	-2808
▁buying	-2809
▁buziya	-2810
▁differ	-2811
▁dādiya	-2812
▁execut	-2813
▁fallen	-2814
▁golden	-2815
▁haršum	-2816
▁ikuppi	-2817
▁impose	-2818
▁itself	-2819
▁nobody	-2820
▁packed	-2821
▁packer	-2822
▁people	-2823
▁porter	-2824
▁quarre	-2825
▁raised	-2826
▁result	-2827
▁retain	-2828
▁search	-2829
▁stayed	-2830
▁wagons	-2831
▁yester	-2832
▁šarrum	-2833
▁1.83333	-2834
▁15.3333	-2835
▁amuraya	-2836
▁anninum	-2837
▁azutaya	-2838
▁azuzaya	-2839
▁bundles	-2840
▁control	-2841
▁counted	-2842
▁ennanum	-2843
▁friends	-2844
▁hannaya	-2845
▁harvest	-2846
▁holding	-2847
▁husband	-2848
▁promise	-2849
▁realise	-2850
▁realize	-2851
▁recieve	-2852
▁sending	-2853
quivalent	-2854
witnesses	-2855
▁akusānum	-2856
▁assisted	-2857
▁assyrian	-2858
▁capitals	-2859
▁enišārum	-2860
▁expendit	-2861
▁indicate	-2862
▁messages	-2863
▁packages	-2864
▁protests	-2865
▁sacrific	-2866
▁villages	-2867
▁weighing	-2868
▁companion	-2869
▁complaint	-2870
▁eništārum	-2871
▁establish	-2872
▁harnesser	-2873
▁mentioned	-2874
▁priestess	-2875
▁purchased	-2876
▁yesterday	-2877
▁colleagues	-2878
▁compensate	-2879
▁repeatedly	-2880
▁themselves	-2881
▁haršumnuman	-2882
▁invalidated	-2883
▁transporter	-2884
',	-2885
?'	-2886
cy	-2887
fe	-2888
fu	-2889
mo	-2890
za	-2891
īn	-2892
ṣm	-2893
"."	-2894
)."	-2895
adu	-2896
ahi	-2897
als	-2898
azi	-2899
ber	-2900
ero	-2901
har	-2902
hor	-2903
ify	-2904
išu	-2905
kul	-2906
man	-2907
oti	-2908
pes	-2909
qum	-2910
ras	-2911
rue	-2912
sur	-2913
utu	-2914
wan	-2915
ype	-2916
šan	-2917
▁..	-2918
▁29	-2919
▁44	-2920
▁51	-2921
▁75	-2922
▁80	-2923
▁ga	-2924
▁ix	-2925
▁mi	-2926
▁ne	-2927
▁ox	-2928
▁pn	-2929
▁vi	-2930
▁ām	-2931
aces	-2932
arum	-2933
ates	-2934
awin	-2935
chan	-2936
ches	-2937
dust	-2938
good	-2939
hata	-2940
iled	-2941
lied	-2942
medi	-2943
meme	-2944
miss	-2945
nīšu	-2946
only	-2947
open	-2948
rect	-2949
take	-2950
thus	-2951
ādum	-2952
īnum	-2953
ītum	-2954
šini	-2955
ššūr	-2956
ṣmid	-2957
▁3--	-2958
▁aku	-2959
▁aut	-2960
▁big	-2961
▁dal	-2962
▁dro	-2963
▁eat	-2964
▁fet	-2965
▁hal	-2966
▁hem	-2967
▁izk	-2968
▁kal	-2969
▁kat	-2970
▁kus	-2971
▁mah	-2972
▁mas	-2973
▁neg	-2974
▁neh	-2975
▁rul	-2976
▁sab	-2977
▁tou	-2978
▁tur	-2979
▁xii	-2980
arama	-2981
ashly	-2982
atiya	-2983
azaya	-2984
aziya	-2985
belum	-2986
dagan	-2987
dagān	-2988
elled	-2989
ellow	-2990
emūqi	-2991
eroom	-2992
ioned	-2993
itled	-2994
nirah	-2995
nānum	-2996
river	-2997
āriya	-2998
šadue	-2999
▁...?	-3000
▁arši	-3001
▁buzi	-3002
▁canc	-3003
▁dann	-3004
▁dudu	-3005
▁feed	-3006
▁fund	-3007
▁harm	-3008
▁high	-3009
▁hudu	-3010
▁inqu	-3011
▁kill	-3012
▁kula	-3013
▁land	-3014
▁lent	-3015
▁mann	-3016
▁meat	-3017
▁mula	-3018
▁prec	-3019
▁robe	-3020
▁salt	-3021
▁seen	-3022
▁stip	-3023
▁true	-3024
▁viii	-3025
▁āmur	-3026
aduwar	-3027
appear	-3028
atched	-3029
ations	-3030
atives	-3031
attiya	-3032
cially	-3033
fortun	-3034
handed	-3035
imitti	-3036
otiate	-3037
payers	-3038
plural	-3039
remely	-3040
▁...],	-3041
▁acted	-3042
▁adaya	-3043
▁aliya	-3044
▁anger	-3045
▁anuli	-3046
▁arran	-3047
▁aside	-3048
▁await	-3049
▁azuza	-3050
▁aššūr	-3051
▁bound	-3052
▁close	-3053
▁const	-3054
▁costs	-3055
▁debts	-3056
▁elalī	-3057
▁ellil	-3058
▁ememe	-3059
▁etaya	-3060
▁hanna	-3061
▁istar	-3062
▁iṣmid	-3063
▁loads	-3064
▁loose	-3065
▁narām	-3066
▁night	-3067
▁olive	-3068
▁rests	-3069
▁ropes	-3070
▁salim	-3071
▁smith	-3072
▁stood	-3073
▁straw	-3074
▁tawin	-3075
▁wares	-3076
▁water	-3077
covered	-3078
mission	-3079
plement	-3080
šarrāni	-3081
▁abiaya	-3082
▁accrue	-3083
▁alpili	-3084
▁alpilī	-3085
▁anīnum	-3086
▁appeal	-3087
▁asking	-3088
▁author	-3089
▁estate	-3090
▁exchan	-3091
▁extras	-3092
▁giving	-3093
▁handed	-3094
▁immedi	-3095
▁inside	-3096
▁kubiya	-3097
▁ladiya	-3098
▁leaves	-3099
▁loaves	-3100
▁longer	-3101
▁mahhur	-3102
▁nakile	-3103
▁proved	-3104
▁rashly	-3105
▁reject	-3106
▁remove	-3107
▁scarfs	-3108
▁surety	-3109
▁ušhata	-3110
▁šallim	-3111
▁10.3333	-3112
▁6.83333	-3113
▁ababaya	-3114
▁accrues	-3115
▁address	-3116
▁arrival	-3117
▁claimed	-3118
▁correct	-3119
▁dropped	-3120
▁izzizam	-3121
▁karwaya	-3122
▁karšini	-3123
▁libbaya	-3124
▁measure	-3125
▁nehriya	-3126
▁outside	-3127
▁qardaya	-3128
▁quarrel	-3129
▁removed	-3130
▁travels	-3131
transport	-3132
▁bazazaya	-3133
▁business	-3134
▁carriage	-3135
▁complete	-3136
▁concerns	-3137
▁deposits	-3138
▁hireling	-3139
▁measures	-3140
▁payments	-3141
▁sabasiya	-3142
▁sealings	-3143
▁tawiniya	-3144
▁tegarama	-3145
▁allowance	-3146
▁conducted	-3147
▁delivered	-3148
▁executive	-3149
▁extremely	-3150
▁gentlemen	-3151
▁negotiate	-3152
▁ourselves	-3153
▁reckoning	-3154
▁secondary	-3155
▁storeroom	-3156
▁sukkaliya	-3157
▁šaladuwar	-3158
fortunately	-3159
▁accounting	-3160
▁afterwards	-3161
▁constantly	-3162
▁dispatched	-3163
▁equivalent	-3164
▁extradited	-3165
▁registered	-3166
▁sacrifices	-3167
▁stipulated	-3168
▁extradition	-3169
▁immediately	-3170
▁information	-3171
▁expenditures	-3172
!)	-3173
)-	-3174
00	-3175
40	-3176
]-	-3177
go	-3178
iw	-3179
zi	-3180
āṣ	-3181
⁄3	-3182
.),	-3183
8.5	-3184
ams	-3185
avy	-3186
aši	-3187
baš	-3188
com	-3189
ean	-3190
egs	-3191
fee	-3192
gin	-3193
has	-3194
hin	-3195
ien	-3196
ift	-3197
its	-3198
izi	-3199
iši	-3200
išk	-3201
ket	-3202
kua	-3203
ppā	-3204
ret	-3205
rog	-3206
sha	-3207
tem	-3208
ten	-3209
tūr	-3210
uha	-3211
una	-3212
uni	-3213
urr	-3214
▁(1	-3215
▁47	-3216
▁52	-3217
▁65	-3218
▁70	-3219
▁ea	-3220
▁fl	-3221
▁ip	-3222
▁ri	-3223
▁sa	-3224
▁sū	-3225
▁uṣ	-3226
(?);	-3227
..."	-3228
.0.5	-3229
bear	-3230
char	-3231
ging	-3232
have	-3233
ibum	-3234
imum	-3235
inan	-3236
inct	-3237
ites	-3238
itim	-3239
itiš	-3240
kitt	-3241
lare	-3242
lict	-3243
maza	-3244
plus	-3245
radi	-3246
rawn	-3247
sing	-3248
type	-3249
uzum	-3250
uṣur	-3251
šadū	-3252
šiši	-3253
▁2⁄3	-3254
▁600	-3255
▁alu	-3256
▁ant	-3257
▁arm	-3258
▁aši	-3259
▁ašu	-3260
▁boy	-3261
▁few	-3262
▁gre	-3263
▁hub	-3264
▁išu	-3265
▁kik	-3266
▁kil	-3267
▁lat	-3268
▁lie	-3269
▁lod	-3270
▁nah	-3271
▁nen	-3272
▁non	-3273
▁nūr	-3274
▁pal	-3275
▁pou	-3276
▁qar	-3277
▁sak	-3278
▁sam	-3279
▁via	-3280
▁zur	-3281
▁šab	-3282
▁šak	-3283
▁šuk	-3284
-[...	-3285
abbil	-3286
about	-3287
adadu	-3288
added	-3289
ainly	-3290
ander	-3291
baštī	-3292
ected	-3293
ellil	-3294
hurum	-3295
ibula	-3296
ident	-3297
ilišu	-3298
indic	-3299
irect	-3300
iries	-3301
ished	-3302
ithum	-3303
iving	-3304
kubum	-3305
kulma	-3306
ledge	-3307
leman	-3308
nārum	-3309
price	-3310
rēṣum	-3311
samas	-3312
share	-3313
since	-3314
tappā	-3315
tūram	-3316
utāya	-3317
▁"...	-3318
▁14.5	-3319
▁abum	-3320
▁ašdu	-3321
▁aššu	-3322
▁cold	-3323
▁conv	-3324
▁coun	-3325
▁curr	-3326
▁deal	-3327
▁dest	-3328
▁drag	-3329
▁dust	-3330
▁earn	-3331
▁fest	-3332
▁gift	-3333
▁hani	-3334
▁ibnī	-3335
▁idle	-3336
▁irma	-3337
▁laid	-3338
▁lend	-3339
▁lipt	-3340
▁mark	-3341
▁mill	-3342
▁padd	-3343
▁pegs	-3344
▁poor	-3345
▁rent	-3346
▁sake	-3347
▁sikk	-3348
▁thro	-3349
▁wood	-3350
▁zuzu	-3351
-[...]	-3352
angers	-3353
gsters	-3354
idence	-3355
ilānum	-3356
ounced	-3357
please	-3358
priest	-3359
within	-3360
worthy	-3361
▁...]-	-3362
▁achie	-3363
▁ahiya	-3364
▁badly	-3365
▁boxes	-3366
▁break	-3367
▁catch	-3368
▁cauld	-3369
▁cause	-3370
▁dalaš	-3371
▁exert	-3372
▁guest	-3373
▁happi	-3374
▁happu	-3375
▁harša	-3376
▁heavy	-3377
▁hurāṣ	-3378
▁ident	-3379
▁incre	-3380
▁invol	-3381
▁known	-3382
▁kukra	-3383
▁kulma	-3384
▁legal	-3385
▁makes	-3386
▁packs	-3387
▁plead	-3388
▁qarra	-3389
▁saddu	-3390
▁sadly	-3391
▁stone	-3392
▁suing	-3393
▁super	-3394
▁treat	-3395
▁turns	-3396
▁urdum	-3397
▁wants	-3398
ahšušar	-3399
ibility	-3400
ignated	-3401
shekels	-3402
willing	-3403
▁......	-3404
▁5.6666	-3405
▁8.3333	-3406
▁[...];	-3407
▁accept	-3408
▁action	-3409
▁ahiaya	-3410
▁ahātum	-3411
▁akiaya	-3412
▁charge	-3413
▁coming	-3414
▁direct	-3415
▁erradi	-3416
▁escort	-3417
▁expect	-3418
▁favors	-3419
▁killed	-3420
▁kitaya	-3421
▁kutanu	-3422
▁kūbiya	-3423
▁malaba	-3424
▁market	-3425
▁menaya	-3426
▁offers	-3427
▁onions	-3428
▁perish	-3429
▁sacred	-3430
▁saliya	-3431
▁samaya	-3432
▁spring	-3433
▁stands	-3434
▁strife	-3435
▁surely	-3436
▁susāya	-3437
▁ummaza	-3438
▁unpack	-3439
▁uršiši	-3440
▁ušmaya	-3441
▁vindic	-3442
▁winter	-3443
▁zikiki	-3444
▁zurzur	-3445
▁šudaya	-3446
▁ṣilluš	-3447
garments	-3448
interest	-3449
mutabbil	-3450
▁adadaya	-3451
▁akitaya	-3452
▁amounts	-3453
▁answers	-3454
▁anybody	-3455
▁aššuwan	-3456
▁bearing	-3457
▁buzuzum	-3458
▁country	-3459
▁current	-3460
▁fitting	-3461
▁forward	-3462
▁guarded	-3463
▁harshly	-3464
▁however	-3465
▁iphurum	-3466
▁izkānum	-3467
▁karwāya	-3468
▁kudādum	-3469
▁paddock	-3470
▁palaces	-3471
▁persons	-3472
▁pledges	-3473
▁porters	-3474
▁pouches	-3475
▁session	-3476
▁several	-3477
▁uṣāriya	-3478
▁youplur	-3479
▁šalimma	-3480
gentleman	-3481
mentioned	-3482
▁anatolia	-3483
▁antimony	-3484
▁appropri	-3485
▁conflict	-3486
▁demanded	-3487
▁earnings	-3488
▁ennāniya	-3489
▁entitled	-3490
▁exchange	-3491
▁festival	-3492
▁formally	-3493
▁hunadadu	-3494
▁interrog	-3495
▁liptānum	-3496
▁listened	-3497
▁marithum	-3498
▁precinct	-3499
▁provided	-3500
▁purified	-3501
▁realised	-3502
▁rejected	-3503
▁remained	-3504
▁rendered	-3505
▁searched	-3506
▁certainly	-3507
▁clearance	-3508
▁different	-3509
▁disappear	-3510
▁discussed	-3511
▁ennanātum	-3512
▁household	-3513
▁impressed	-3514
▁knowledge	-3515
▁kukulānum	-3516
▁pirikannu	-3517
▁recovered	-3518
▁strangers	-3519
▁sukalliya	-3520
▁sukkallum	-3521
▁travelled	-3522
▁unwilling	-3523
▁šulupkian	-3524
▁complement	-3525
▁conditions	-3526
▁designated	-3527
▁represents	-3528
▁youngsters	-3529
▁luhuzattiya	-3530
▁possibility	-3531
▁trustworthy	-3532
▁underweight	-3533
▁compensation	-3534
''	-3535
)!	-3536
+3	-3537
-)	-3538
>,	-3539
>>	-3540
?,	-3541
bi	-3542
bs	-3543
ga	-3544
hā	-3545
ix	-3546
pr	-3547
tt	-3548
ār	-3549
īm	-3550
ṣu	-3551
▁]	-3552
(!)	-3553
.).	-3554
?""	-3555
?].	-3556
abu	-3557
any	-3558
ari	-3559
ars	-3560
ask	-3561
ašm	-3562
ašu	-3563
bal	-3564
bit	-3565
bāš	-3566
cal	-3567
dis	-3568
eem	-3569
eet	-3570
elo	-3571
els	-3572
elt	-3573
emb	-3574
eng	-3575
fig	-3576
ful	-3577
god	-3578
got	-3579
how	-3580
ibe	-3581
idd	-3582
ird	-3583
kūb	-3584
lam	-3585
law	-3586
leg	-3587
mak	-3588
mer	-3589
nah	-3590
nan	-3591
nis	-3592
ory	-3593
ove	-3594
ply	-3595
pun	-3596
rit	-3597
sīn	-3598
uku	-3599
ume	-3600
uti	-3601
uzī	-3602
who	-3603
āti	-3604
āzu	-3605
šin	-3606
šād	-3607
▁".	-3608
▁1,	-3609
▁1.	-3610
▁38	-3611
▁49	-3612
▁54	-3613
▁86	-3614
▁94	-3615
▁<<	-3616
▁du	-3617
▁ik	-3618
▁ma	-3619
▁tē	-3620
▁ub	-3621
).""	-3622
...)	-3623
...:	-3624
ably	-3625
ahna	-3626
amsi	-3627
anah	-3628
arly	-3629
atan	-3630
ašša	-3631
blet	-3632
buff	-3633
cret	-3634
doer	-3635
dāya	-3636
entr	-3637
ernu	-3638
fund	-3639
gave	-3640
hood	-3641
ibal	-3642
ides	-3643
idge	-3644
illi	-3645
ines	-3646
ists	-3647
itum	-3648
ized	-3649
kaya	-3650
kels	-3651
loan	-3652
luṣu	-3653
mber	-3654
nišû	-3655
nišū	-3656
osed	-3657
owes	-3658
pers	-3659
poss	-3660
raps	-3661
raya	-3662
sell	-3663
umed	-3664
unct	-3665
upon	-3666
urum	-3667
usur	-3668
vise	-3669
were	-3670
ūdum	-3671
▁(?)	-3672
▁180	-3673
▁603	-3674
▁9.5	-3675
▁air	-3676
▁akū	-3677
▁alā	-3678
▁ani	-3679
▁asq	-3680
▁bul	-3681
▁cap	-3682
▁div	-3683
▁fed	-3684
▁hit	-3685
▁low	-3686
▁mis	-3687
▁ore	-3688
▁paš	-3689
▁rum	-3690
▁sah	-3691
▁sas	-3692
▁ski	-3693
▁sto	-3694
▁sun	-3695
▁tam	-3696
▁teh	-3697
▁tex	-3698
▁tis	-3699
▁try	-3700
▁tud	-3701
▁ziz	-3702
▁šim	-3703
▁šiš	-3704
-...:	-3705
affic	-3706
after	-3707
ahhin	-3708
ailer	-3709
ališk	-3710
allām	-3711
aršan	-3712
aššūr	-3713
bring	-3714
burse	-3715
bāštī	-3716
claim	-3717
elope	-3718
erved	-3719
figur	-3720
ghten	-3721
hisel	-3722
hāqum	-3723
icult	-3724
iency	-3725
ilīšu	-3726
ivery	-3727
lying	-3728
nahuš	-3729
ppiya	-3730
proof	-3731
quest	-3732
riage	-3733
samsi	-3734
smith	-3735
those	-3736
tiles	-3737
titiš	-3738
ttata	-3739
ually	-3740
usion	-3741
usted	-3742
uziya	-3743
which	-3744
wniya	-3745
šarra	-3746
šumšu	-3747
▁...)	-3748
▁15.5	-3749
▁20.5	-3750
▁45.5	-3751
▁apum	-3752
▁azua	-3753
▁bead	-3754
▁call	-3755
▁comm	-3756
▁deed	-3757
▁draw	-3758
▁dāya	-3759
▁ears	-3760
▁ernu	-3761
▁espe	-3762
▁feet	-3763
▁hali	-3764
▁halk	-3765
▁hapi	-3766
▁hatt	-3767
▁huma	-3768
▁inar	-3769
▁išār	-3770
▁jail	-3771
▁kind	-3772
▁kurz	-3773
▁lies	-3774
▁lila	-3775
▁live	-3776
▁mala	-3777
▁malt	-3778
▁moth	-3779
▁muza	-3780
▁nazi	-3781
▁nerv	-3782
▁none	-3783
▁obli	-3784
▁pays	-3785
▁reim	-3786
▁salv	-3787
▁sets	-3788
▁snow	-3789
▁tuli	-3790
▁upon	-3791
▁urad	-3792
▁uzub	-3793
▁ward	-3794
▁warn	-3795
▁wine	-3796
0.3333	-3797
action	-3798
addles	-3799
ahānum	-3800
alānum	-3801
belong	-3802
elamma	-3803
emblem	-3804
ferior	-3805
indeed	-3806
isions	-3807
member	-3808
morrow	-3809
opened	-3810
person	-3811
ppilis	-3812
soever	-3813
talent	-3814
šināti	-3815
▁...];	-3816
▁adiya	-3817
▁adudu	-3818
▁afore	-3819
▁ahuni	-3820
▁akuwa	-3821
▁annul	-3822
▁atāya	-3823
▁ašiat	-3824
▁begin	-3825
▁belts	-3826
▁block	-3827
▁boots	-3828
▁bribe	-3829
▁chaff	-3830
▁combs	-3831
▁doing	-3832
▁drawn	-3833
▁dying	-3834
▁enlil	-3835
▁ennan	-3836
▁finan	-3837
▁found	-3838
▁funct	-3839
▁habur	-3840
▁ikuwa	-3841
▁illeg	-3842
▁kibal	-3843
▁labān	-3844
▁litig	-3845
▁lived	-3846
▁local	-3847
▁luhus	-3848
▁marry	-3849
▁metal	-3850
▁mīšar	-3851
▁names	-3852
▁owned	-3853
▁owner	-3854
▁parts	-3855
▁press	-3856
▁proof	-3857
▁quitt	-3858
▁river	-3859
▁roads	-3860
▁sahar	-3861
▁seven	-3862
▁spare	-3863
▁sweet	-3864
▁sūaya	-3865
▁terri	-3866
▁thres	-3867
▁tiles	-3868
▁trade	-3869
▁white	-3870
▁wrong	-3871
▁šulhu	-3872
▁šuppi	-3873
ališkan	-3874
ašranni	-3875
ennānum	-3876
further	-3877
tammuzī	-3878
▁3.1666	-3879
▁3.6666	-3880
▁4.1666	-3881
▁abatan	-3882
▁access	-3883
▁advise	-3884
▁akutum	-3885
▁atanah	-3886
▁barber	-3887
▁bearer	-3888
▁bridge	-3889
▁buzāzu	-3890
▁chisel	-3891
▁coffer	-3892
▁dadāya	-3893
▁damuma	-3894
▁daraši	-3895
▁destro	-3896
▁driver	-3897
▁dumana	-3898
▁fellow	-3899
▁guides	-3900
▁hadaya	-3901
▁išuhum	-3902
▁kakuwa	-3903
▁living	-3904
▁manage	-3905
▁manner	-3906
▁manuba	-3907
▁master	-3908
▁miller	-3909
▁namely	-3910
▁nanaya	-3911
▁narmak	-3912
▁needed	-3913
▁object	-3914
▁passes	-3915
▁pester	-3916
▁rebuff	-3917
▁remind	-3918
▁safety	-3919
▁secret	-3920
▁showed	-3921
▁silent	-3922
▁stated	-3923
▁stored	-3924
▁straps	-3925
▁suffer	-3926
▁susaya	-3927
▁thrown	-3928
▁tibula	-3929
▁tūraya	-3930
▁unable	-3931
▁zuzuwa	-3932
▁šamuha	-3933
▁šišara	-3934
▁šudāya	-3935
▁šuzuzu	-3936
▁ṣallām	-3937
ahhinnum	-3938
handedly	-3939
measures	-3940
possible	-3941
▁13.6666	-3942
▁applied	-3943
▁arrange	-3944
▁atadiya	-3945
▁babilum	-3946
▁belanum	-3947
▁capable	-3948
▁charged	-3949
▁cheated	-3950
▁courage	-3951
▁dannaya	-3952
▁decided	-3953
▁declare	-3954
▁demands	-3955
▁detains	-3956
▁effectu	-3957
▁expired	-3958
▁hadītum	-3959
▁hurrama	-3960
▁ippilis	-3961
▁katātum	-3962
▁kunnāya	-3963
▁looking	-3964
▁malahum	-3965
▁meeting	-3966
▁neither	-3967
▁nenašša	-3968
▁nervous	-3969
▁pašallu	-3970
▁sakliya	-3971
▁skipper	-3972
▁support	-3973
▁surplus	-3974
▁tawniya	-3975
▁touched	-3976
▁traffic	-3977
▁uphāqum	-3978
▁weather	-3979
▁worried	-3980
▁yousing	-3981
▁šalahšu	-3982
▁šukutum	-3983
figurines	-3984
positions	-3985
▁affected	-3986
▁argument	-3987
▁carrying	-3988
▁cauldron	-3989
▁contests	-3990
▁delivery	-3991
▁document	-3992
▁entrance	-3993
▁envelope	-3994
▁evidence	-3995
▁evildoer	-3996
▁function	-3997
▁inferior	-3998
▁interior	-3999
▁kikaršan	-4000
▁marriage	-4001
▁receives	-4002
▁recorded	-4003
▁remitted	-4004
▁reserved	-4005
▁sikkitim	-4006
▁standard	-4007
▁stations	-4008
▁suettata	-4009
▁superior	-4010
▁tiltitiš	-4011
▁tomorrow	-4012
▁verdicts	-4013
containers	-4014
▁addressed	-4015
▁announced	-4016
▁answering	-4017
▁authority	-4018
▁babalānum	-4019
▁beginning	-4020
▁cancelled	-4021
▁creditors	-4022
▁difficult	-4023
▁ennamānum	-4024
▁ennānātum	-4025
▁gathering	-4026
▁halkiaššu	-4027
▁ilališkan	-4028
▁illegally	-4029
▁inquiries	-4030
▁interests	-4031
▁kuzilānum	-4032
▁merchants	-4033
▁quittance	-4034
▁recording	-4035
▁regularly	-4036
▁reimburse	-4037
▁something	-4038
▁somewhere	-4039
▁threshing	-4040
▁whereupon	-4041
▁šabahānum	-4042
▁šilipkian	-4043
▁abatanānum	-4044
▁alahhinnum	-4045
▁blacksmith	-4046
▁conclusion	-4047
▁contracted	-4048
▁deductions	-4049
▁deficiency	-4050
▁especially	-4051
▁invalidate	-4052
▁permission	-4053
▁previously	-4054
▁provisions	-4055
▁whatsoever	-4056
▁investments	-4057
▁luhusaddiya	-4058
▁represented	-4059
▁appropriated	-4060
▁testamentary	-4061
▁consideration	-4062
▁undergarments	-4063
▁unfortunately	-4064
!,	-4065
!.	-4066
";	-4067
(-	-4068
+1	-4069
+5	-4070
.2	-4071
60	-4072
84	-4073
?-	-4074
?;	-4075
]?	-4076
aq	-4077
ew	-4078
lp	-4079
ls	-4080
lā	-4081
qq	-4082
sp	-4083
wi	-4084
yē	-4085
zē	-4086
āk	-4087
ūṣ	-4088
ṭī	-4089
ṭṭ	-4090
▁–	-4091
▁“	-4092
!".	-4093
+]5	-4094
.'"	-4095
.10	-4096
?),	-4097
?],	-4098
?]:	-4099
?.	-4100
+]2	-4101
acy	-4102
aff	-4103
ane	-4104
aru	-4105
asu	-4106
ati	-4107
aza	-4108
azu	-4109
aša	-4110
bec	-4111
bed	-4112
bly	-4113
bre	-4114
btu	-4115
dec	-4116
did	-4117
dun	-4118
edi	-4119
een	-4120
ees	-4121
ela	-4122
eps	-4123
esm	-4124
ett	-4125
fin	-4126
gan	-4127
get	-4128
gim	-4129
had	-4130
haš	-4131
hen	-4132
hip	-4133
hiš	-4134
ibr	-4135
ict	-4136
icy	-4137
iga	-4138
ilt	-4139
ira	-4140
iti	-4141
jor	-4142
joy	-4143
kar	-4144
kaš	-4145
kus	-4146
lib	-4147
lik	-4148
lut	-4149
mea	-4150
min	-4151
mum	-4152
māt	-4153
nas	-4154
ned	-4155
oil	-4156
omp	-4157
oud	-4158
piy	-4159
pka	-4160
pki	-4161
puz	-4162
rep	-4163
ria	-4164
say	-4165
set	-4166
sit	-4167
som	-4168
spe	-4169
sts	-4170
sum	-4171
ted	-4172
twe	-4173
uhu	-4174
und	-4175
usu	-4176
vet	-4177
vey	-4178
wal	-4179
wed	-4180
wēr	-4181
yal	-4182
yet	-4183
āli	-4184
āru	-4185
▁."	-4186
▁.-	-4187
▁1]	-4188
▁3,	-4189
▁3-	-4190
▁58	-4191
▁61	-4192
▁66	-4193
▁72	-4194
▁8?	-4195
▁90	-4196
▁92	-4197
▁?"	-4198
▁[-	-4199
ūṣi	-4200
▁ax	-4201
▁dā	-4202
▁ef	-4203
▁gl	-4204
▁lū	-4205
▁mo	-4206
▁pu	-4207
▁tū	-4208
▁šū	-4209
▁ṣe	-4210
'.""	-4211
(?)>	-4212
[...	-4213
abia	-4214
adub	-4215
agal	-4216
ahiš	-4217
alam	-4218
alse	-4219
ampa	-4220
anim	-4221
anqu	-4222
anus	-4223
aped	-4224
aqqu	-4225
ards	-4226
arka	-4227
assī	-4228
atna	-4229
ašmē	-4230
bute	-4231
cial	-4232
draw	-4233
duce	-4234
each	-4235
ened	-4236
erra	-4237
even	-4238
eyya	-4239
ibru	-4240
igns	-4241
iles	-4242
iqum	-4243
isua	-4244
itar	-4245
ixed	-4246
izya	-4247
išra	-4248
know	-4249
kuku	-4250
kūbī	-4251
load	-4252
loor	-4253
make	-4254
male	-4255
mert	-4256
niya	-4257
niyē	-4258
oken	-4259
olen	-4260
oned	-4261
ored	-4262
orry	-4263
owed	-4264
pann	-4265
plot	-4266
pose	-4267
qqad	-4268
rack	-4269
rugs	-4270
said	-4271
seer	-4272
some	-4273
sure	-4274
term	-4275
ting	-4276
tāya	-4277
uing	-4278
umin	-4279
uten	-4280
ušar	-4281
ušta	-4282
vant	-4283
vess	-4284
wart	-4285
watu	-4286
ways	-4287
zaya	-4288
ālim	-4289
īmat	-4290
īnah	-4291
▁000	-4292
▁10-	-4293
▁117	-4294
▁120	-4295
▁156	-4296
▁170	-4297
▁181	-4298
▁1:7	-4299
▁1:8	-4300
▁20+	-4301
▁200	-4302
▁207	-4303
▁280	-4304
▁684	-4305
▁6:1	-4306
▁[16	-4307
▁[40	-4308
▁[?]	-4309
▁aba	-4310
▁alī	-4311
▁ata	-4312
▁aše	-4313
▁bil	-4314
▁bud	-4315
▁cal	-4316
▁cho	-4317
▁cou	-4318
▁deb	-4319
▁dim	-4320
▁duh	-4321
▁dun	-4322
▁end	-4323
▁eng	-4324
▁ezē	-4325
▁ešu	-4326
▁far	-4327
▁fre	-4328
▁fri	-4329
▁ham	-4330
▁ill	-4331
▁išt	-4332
▁kab	-4333
▁kam	-4334
▁kiz	-4335
▁lad	-4336
▁lib	-4337
▁mul	-4338
▁mut	-4339
▁ner	-4340
▁nit	-4341
▁niw	-4342
▁num	-4343
▁opp	-4344
▁ori	-4345
▁pas	-4346
▁pol	-4347
▁pos	-4348
▁pot	-4349
▁puq	-4350
▁ran	-4351
▁red	-4352
▁rev	-4353
▁rid	-4354
▁rim	-4355
▁ser	-4356
▁sim	-4357
▁ste	-4358
▁umm	-4359
▁var	-4360
▁wab	-4361
▁wax	-4362
▁zia	-4363
▁zil	-4364
▁zum	-4365
▁šad	-4366
▁šik	-4367
▁šub	-4368
+]0.5	-4369
-...,	-4370
[...]	-4371
aches	-4372
aging	-4373
akaya	-4374
annum	-4375
anunu	-4376
apart	-4377
aring	-4378
arrur	-4379
artum	-4380
asant	-4381
asing	-4382
ating	-4383
atman	-4384
attum	-4385
aurum	-4386
aving	-4387
awazi	-4388
ayali	-4389
ašsur	-4390
bread	-4391
comes	-4392
doing	-4393
edium	-4394
ences	-4395
ended	-4396
ength	-4397
ently	-4398
esmir	-4399
eties	-4400
ettle	-4401
every	-4402
funds	-4403
gimlī	-4404
goods	-4405
hence	-4406
ibani	-4407
icted	-4408
ilder	-4409
imtum	-4410
ināya	-4411
irdle	-4412
ively	-4413
iškum	-4414
karwa	-4415
kašid	-4416
kubtu	-4417
kusum	-4418
leave	-4419
libši	-4420
narum	-4421
nātum	-4422
place	-4423
posed	-4424
puzur	-4425
qudum	-4426
racks	-4427
rears	-4428
retch	-4429
silli	-4430
solut	-4431
spice	-4432
stand	-4433
takal	-4434
tašmē	-4435
tempt	-4436
tends	-4437
their	-4438
these	-4439
tween	-4440
uddum	-4441
utani	-4442
walla	-4443
šueni	-4444
▁(1-)	-4445
▁...'	-4446
▁16.5	-4447
▁18.5	-4448
▁19.5	-4449
▁23.5	-4450
▁31.5	-4451
▁33.5	-4452
▁34.5	-4453
▁37.5	-4454
▁51.5	-4455
▁53.5	-4456
▁56.5	-4457
▁[0.5	-4458
▁abdu	-4459
▁agua	-4460
▁akūa	-4461
▁amor	-4462
▁amua	-4463
▁annu	-4464
▁area	-4465
▁ašed	-4466
▁baba	-4467
▁bala	-4468
▁baši	-4469
▁bebe	-4470
▁beha	-4471
▁burā	-4472
▁būṣi	-4473
▁cups	-4474
▁dece	-4475
▁depr	-4476
▁ennā	-4477
▁exha	-4478
▁feas	-4479
▁find	-4480
▁fled	-4481
▁forb	-4482
▁gets	-4483
▁grow	-4484
▁haul	-4485
▁hazu	-4486
▁help	-4487
▁hund	-4488
▁hurt	-4489
▁iddi	-4490
▁idea	-4491
▁ikua	-4492
▁impl	-4493
▁irbi	-4494
▁iziz	-4495
▁išar	-4496
▁kize	-4497
▁kulu	-4498
▁leni	-4499
▁life	-4500
▁logs	-4501
▁main	-4502
▁maya	-4503
▁melt	-4504
▁memo	-4505
▁mour	-4506
▁naku	-4507
▁nann	-4508
▁nibr	-4509
▁nini	-4510
▁oral	-4511
▁oust	-4512
▁outs	-4513
▁pure	-4514
▁puzu	-4515
▁qaṭṭ	-4516
▁rely	-4517
▁repl	-4518
▁reve	-4519
▁ripe	-4520
▁runs	-4521
▁situ	-4522
▁size	-4523
▁spir	-4524
▁stra	-4525
▁sues	-4526
▁suff	-4527
▁sumi	-4528
▁tall	-4529
▁tamk	-4530
▁text	-4531
▁tied	-4532
▁tind	-4533
▁unap	-4534
▁weft	-4535
▁wrap	-4536
▁zarn	-4537
▁zuwa	-4538
▁šarn	-4539
▁šuma	-4540
-...],	-4541
-...].	-4542
aining	-4543
alment	-4544
analum	-4545
anquet	-4546
atiwar	-4547
bearer	-4548
coming	-4549
driver	-4550
dunani	-4551
gotten	-4552
haliya	-4553
hurpiy	-4554
ifying	-4555
igated	-4556
inuman	-4557
iously	-4558
ishara	-4559
ishing	-4560
jority	-4561
malasu	-4562
mertum	-4563
minent	-4564
nanaya	-4565
nisaba	-4566
office	-4567
pening	-4568
pkaean	-4569
ribute	-4570
ritory	-4571
should	-4572
sitate	-4573
temple	-4574
unpaid	-4575
unuman	-4576
watuwi	-4577
▁(...)	-4578
▁...?"	-4579
▁1:8.5	-4580
▁abela	-4581
▁abila	-4582
▁above	-4583
▁accum	-4584
▁agaya	-4585
▁akuka	-4586
▁alaya	-4587
▁alien	-4588
▁aloud	-4589
▁azida	-4590
▁ašsur	-4591
▁baqqu	-4592
▁beads	-4593
▁below	-4594
▁bubur	-4595
▁built	-4596
▁campa	-4597
▁cheap	-4598
▁chose	-4599
▁class	-4600
▁clean	-4601
▁covet	-4602
▁cumin	-4603
▁dated	-4604
▁draws	-4605
▁dried	-4606
▁elali	-4607
▁emeni	-4608
▁enjoy	-4609
▁exact	-4610
▁falls	-4611
▁false	-4612
▁fight	-4613
▁fixed	-4614
▁flask	-4615
▁floor	-4616
▁grant	-4617
▁grave	-4618
▁green	-4619
▁greet	-4620
▁guide	-4621
▁happy	-4622
▁harab	-4623
▁haššu	-4624
▁idida	-4625
▁imlik	-4626
▁isaya	-4627
▁ištak	-4628
▁judge	-4629
▁kalka	-4630
▁kaniš	-4631
▁kukua	-4632
▁kulia	-4633
▁kuzuz	-4634
▁laban	-4635
▁laqēp	-4636
▁latar	-4637
▁learn	-4638
▁libbi	-4639
▁lying	-4640
▁lāqēp	-4641
▁malik	-4642
▁might	-4643
▁miššu	-4644
▁moths	-4645
▁mīšur	-4646
▁nahiš	-4647
▁named	-4648
▁nirah	-4649
▁noone	-4650
▁parka	-4651
▁party	-4652
▁plane	-4653
▁queen	-4654
▁quiet	-4655
▁reeds	-4656
▁royal	-4657
▁ruins	-4658
▁ruler	-4659
▁sahri	-4660
▁sales	-4661
▁serve	-4662
▁shows	-4663
▁sikku	-4664
▁sorry	-4665
▁sound	-4666
▁spoon	-4667
▁staff	-4668
▁steps	-4669
▁stock	-4670
▁subst	-4671
▁tarry	-4672
▁think	-4673
▁touch	-4674
▁tries	-4675
▁troub	-4676
▁unuba	-4677
▁upper	-4678
▁upset	-4679
▁wagon	-4680
▁watch	-4681
▁young	-4682
▁zagal	-4683
▁zikur	-4684
▁šarru	-4685
▁šupun	-4686
▁šīmat	-4687
▁ṣeher	-4688
(?)...]	-4689
-[...],	-4690
.1.3333	-4691
appoint	-4692
assutum	-4693
bearing	-4694
because	-4695
charged	-4696
holders	-4697
ištarum	-4698
opening	-4699
partial	-4700
pension	-4701
produce	-4702
quality	-4703
several	-4704
station	-4705
thereof	-4706
timniyē	-4707
utenant	-4708
uṣranni	-4709
vessels	-4710
▁..."."	-4711
▁2.1666	-4712
▁7.6666	-4713
▁9.3333	-4714
▁[...]-	-4715
▁[...].	-4716
▁accomp	-4717
▁across	-4718
▁alāhum	-4719
▁amkuwa	-4720
▁annali	-4721
▁assume	-4722
▁atahšu	-4723
▁attack	-4724
▁bekaya	-4725
▁besmir	-4726
▁bitaya	-4727
▁blocks	-4728
▁boiled	-4729
▁bother	-4730
▁bulāli	-4731
▁buried	-4732
▁butqum	-4733
▁buzuzu	-4734
▁buṣiya	-4735
▁cancel	-4736
▁caught	-4737
▁chased	-4738
▁clears	-4739
▁closed	-4740
▁common	-4741
▁comply	-4742
▁convey	-4743
▁couple	-4744
▁covers	-4745
▁dannum	-4746
▁denied	-4747
▁determ	-4748
▁divide	-4749
▁double	-4750
▁drinks	-4751
▁duhniš	-4752
▁dādaya	-4753
▁effort	-4754
▁enough	-4755
▁enters	-4756
▁except	-4757
▁excess	-4758
▁exists	-4759
▁ešarra	-4760
▁failed	-4761
▁female	-4762
▁fetter	-4763
▁forced	-4764
▁forget	-4765
▁freely	-4766
▁fuller	-4767
▁ganunu	-4768
▁gaziya	-4769
▁girdle	-4770
▁goblet	-4771
▁guards	-4772
▁hanaya	-4773
▁hatiya	-4774
▁hattus	-4775
▁hitani	-4776
▁hudida	-4777
▁huliya	-4778
▁hungry	-4779
▁hurāṣī	-4780
▁huziya	-4781
▁ibisua	-4782
▁ikraya	-4783
▁katila	-4784
▁kaziya	-4785
▁kettle	-4786
▁kiliya	-4787
▁kulaba	-4788
▁kunila	-4789
▁kurkur	-4790
▁ladies	-4791
▁legacy	-4792
▁length	-4793
▁libaya	-4794
▁loaded	-4795
▁lodged	-4796
▁looked	-4797
▁marked	-4798
▁medium	-4799
▁merani	-4800
▁mouths	-4801
▁moving	-4802
▁naniya	-4803
▁niwala	-4804
▁notice	-4805
▁number	-4806
▁parrur	-4807
▁paying	-4808
▁places	-4809
▁policy	-4810
▁procur	-4811
▁proves	-4812
▁puqidi	-4813
▁qaqqad	-4814
▁ransom	-4815
▁redeem	-4816
▁refine	-4817
▁reigns	-4818
▁rented	-4819
▁ruling	-4820
▁sasiya	-4821
▁secure	-4822
▁shorty	-4823
▁smiths	-4824
▁smuggl	-4825
▁spoken	-4826
▁starts	-4827
▁stolen	-4828
▁sueyya	-4829
▁supann	-4830
▁tables	-4831
▁taking	-4832
▁talked	-4833
▁though	-4834
▁turaya	-4835
▁waited	-4836
▁waliya	-4837
▁wardum	-4838
▁wished	-4839
▁woolen	-4840
▁yellow	-4841
balanced	-4842
solutely	-4843
tahšušar	-4844
unopened	-4845
yourself	-4846
▁1.3333?	-4847
▁10.6666	-4848
▁11.3333	-4849
▁11.6666	-4850
▁13.3333	-4851
▁14.1666	-4852
▁15.6666	-4853
▁16.1666	-4854
▁17.3333	-4855
▁18.3333	-4856
▁18.6666	-4857
▁2.66666	-4858
▁30.3333	-4859
▁31.3333	-4860
▁4.83333	-4861
▁5.83333	-4862
▁55.6666	-4863
▁9.83333	-4864
▁[0.3333	-4865
▁achieve	-4866
▁alutani	-4867
▁appears	-4868
▁arguing	-4869
▁arrears	-4870
▁asqudum	-4871
▁asqūdum	-4872
▁atatiya	-4873
▁azutāya	-4874
▁babazua	-4875
▁banquet	-4876
▁becomes	-4877
▁between	-4878
▁binding	-4879
▁boatman	-4880
▁boxwood	-4881
▁builder	-4882
▁buṣānum	-4883
▁bēlātum	-4884
▁command	-4885
▁counsel	-4886
▁counter	-4887
▁dadanum	-4888
▁destroy	-4889
▁edināya	-4890
▁eponyms	-4891
▁escaped	-4892
▁escorts	-4893
▁fetters	-4894
▁fromthe	-4895
▁haburat	-4896
▁haditum	-4897
▁hatahšu	-4898
▁hubītum	-4899
▁hundred	-4900
▁imposed	-4901
▁inquire	-4902
▁install	-4903
▁ištahšu	-4904
▁kanwart	-4905
▁karahna	-4906
▁kunnaya	-4907
▁kurziya	-4908
▁kutanum	-4909
▁kutanus	-4910
▁kuzizya	-4911
▁laqēpum	-4912
▁leaving	-4913
▁lenient	-4914
▁levying	-4915
▁lodging	-4916
▁mutalum	-4917
▁mušueni	-4918
▁nahriya	-4919
▁nannaya	-4920
▁natives	-4921
▁objects	-4922
▁packers	-4923
▁pleaded	-4924
▁profits	-4925
▁purpose	-4926
▁reaches	-4927
▁records	-4928
▁request	-4929
▁results	-4930
▁running	-4931
▁salvage	-4932
▁seizing	-4933
▁slander	-4934
▁smaller	-4935
▁smuggle	-4936
▁special	-4937
▁spoiled	-4938
▁stopped	-4939
▁stretch	-4940
▁sukkuku	-4941
▁telling	-4942
▁thereby	-4943
▁trusted	-4944
▁tukubtu	-4945
▁ummassa	-4946
▁various	-4947
▁wališra	-4948
▁wašibru	-4949
▁willing	-4950
▁wrapped	-4951
▁yielded	-4952
▁zuzānum	-4953
▁šilipki	-4954
belonging	-4955
entrusted	-4956
hurpiyala	-4957
priestess	-4958
remaining	-4959
represent	-4960
therefore	-4961
▁........	-4962
▁11.83333	-4963
▁16.83333	-4964
▁27.83333	-4965
▁accepted	-4966
▁achieved	-4967
▁amorites	-4968
▁amurriya	-4969
▁annually	-4970
▁anuppiya	-4971
▁appealed	-4972
▁appeared	-4973
▁applying	-4974
▁arranged	-4975
▁baqqunum	-4976
▁buruddum	-4977
▁buzuliya	-4978
▁buzutāya	-4979
▁campaign	-4980
▁clearing	-4981
▁compound	-4982
▁consumed	-4983
▁contempt	-4984
▁continue	-4985
▁declares	-4986
▁departed	-4987
▁directly	-4988
▁eddinaya	-4989
▁emmertum	-4990
▁ennamaya	-4991
▁feasible	-4992
▁frighten	-4993
▁gathered	-4994
▁hadiaššu	-4995
▁hannānum	-4996
▁happuala	-4997
▁harimtum	-4998
▁hesitate	-4999
▁identify	-5000
▁imminent	-5001
▁increase	-5002
▁involved	-5003
▁journeys	-5004
▁judicial	-5005
▁kiziziya	-5006
▁kulumāya	-5007
▁kuskusum	-5008
▁lawsuits	-5009
▁litigant	-5010
▁majority	-5011
▁malakaya	-5012
▁maltreat	-5013
▁mourning	-5014
▁nahištum	-5015
▁overseer	-5016
▁pressure	-5017
▁quarters	-5018
▁rebuffed	-5019
▁relevant	-5020
▁remember	-5021
▁reponsib	-5022
▁resident	-5023
▁retailer	-5024
▁retained	-5025
▁ripening	-5026
▁secretly	-5027
▁separate	-5028
▁specific	-5029
▁starting	-5030
▁straight	-5031
▁suffered	-5032
▁sureties	-5033
▁tarawazi	-5034
▁terribly	-5035
▁thinking	-5036
▁tuwatuwi	-5037
▁unpacked	-5038
▁wabartum	-5039
▁walibani	-5040
▁withdraw	-5041
▁withhold	-5042
▁zarniqum	-5043
▁šalatuar	-5044
▁ṣallāmum	-5045
▁.........	-5046
▁amounting	-5047
▁attorneys	-5048
▁buburānum	-5049
▁concerned	-5050
▁condition	-5051
▁confident	-5052
▁contested	-5053
▁convicted	-5054
▁eništarum	-5055
▁ennanatum	-5056
▁forgotten	-5057
▁hazuwalla	-5058
▁hurāṣānum	-5059
▁husanalum	-5060
▁impartial	-5061
▁important	-5062
▁increased	-5063
▁inspected	-5064
▁ištakušar	-5065
▁kunnanaya	-5066
▁messanger	-5067
▁officials	-5068
▁parrurtum	-5069
▁presented	-5070
▁purifying	-5071
▁questions	-5072
▁remaining	-5073
▁reopening	-5074
▁seriously	-5075
▁situation	-5076
▁territory	-5077
▁travelers	-5078
▁traveling	-5079
▁tudhaliya	-5080
▁šalahšuwa	-5081
▁šalatiwar	-5082
▁šuppiahšu	-5083
▁absolutely	-5084
▁approached	-5085
▁authorized	-5086
▁besmirched	-5087
▁containing	-5088
▁contribute	-5089
▁deposition	-5090
▁directions	-5091
▁disappears	-5092
▁effectuate	-5093
▁encouraged	-5094
▁favourable	-5095
▁guarantees	-5096
▁harnessers	-5097
▁identified	-5098
▁instalment	-5099
▁kaneshites	-5100
▁lieutenant	-5101
▁nitahšušar	-5102
▁obstructed	-5103
▁oustanding	-5104
▁qaqqadānum	-5105
▁settlement	-5106
▁suppressed	-5107
▁suspension	-5108
▁waterproof	-5109
▁wrongdoing	-5110
▁šulupkaean	-5111
▁šuppunuman	-5112
specifically	-5113
▁accumulated	-5114
▁brotherhood	-5115
▁countryside	-5116
▁differences	-5117
▁financially	-5118
▁luhuzaddiya	-5119
▁packsaddles	-5120
▁questioning	-5121
▁saddlecloth	-5122
▁suhurpiyala	-5123
▁vindication	-5124
unfortunately	-5125
▁declarations	-5126
▁difficulties	-5127
▁dispositions	-5128
▁highhandedly	-5129
▁interrogates	-5130
▁investigated	-5131
▁contractually	-5132
▁encouragement	-5133
▁reponsibility	-5134
!”	-5135
""	-5136
()	-5137
(+	-5138
)'	-5139
)?	-5140
,'	-5141
-,	-5142
-<	-5143
.”	-5144
0]	-5145
10	-5146
27	-5147
38	-5148
4]	-5149
50	-5150
51	-5151
6?	-5152
80	-5153
9]	-5154
;1	-5155
;3	-5156
>-	-5157
>.	-5158
>;	-5159
>?	-5160
?>	-5161
[+	-5162
[7	-5163
[9	-5164
]!	-5165
]+	-5166
]:	-5167
ax	-5168
bē	-5169
cu	-5170
da	-5171
de	-5172
ev	-5173
eš	-5174
fl	-5175
gi	-5176
gn	-5177
gu	-5178
hc	-5179
ih	-5180
iy	-5181
ks	-5182
lv	-5183
mi	-5184
mû	-5185
no	-5186
ob	-5187
oi	-5188
pn	-5189
pā	-5190
qa	-5191
rn	-5192
sy	-5193
sī	-5194
sū	-5195
tw	-5196
vi	-5197
vr	-5198
wl	-5199
'?	-5200
17	-5201
sl	-5202
va	-5203
ws	-5204
āz	-5205
ēm	-5206
ēz	-5207
ēṣ	-5208
še	-5209
ūs	-5210
ʾ.	-5211
ṭi	-5212
!',	-5213
'".	-5214
()]	-5215
)'.	-5216
.33	-5217
.5]	-5218
3.5	-5219
:1,	-5220
?]-	-5221
]?"	-5222
aga	-5223
ahe	-5224
ahī	-5225
alk	-5226
ank	-5227
apr	-5228
ark	-5229
arā	-5230
asa	-5231
asy	-5232
ayi	-5233
ban	-5234
bis	-5235
bla	-5236
can	-5237
cle	-5238
cul	-5239
ded	-5240
don	-5241
eas	-5242
ene	-5243
eru	-5244
ery	-5245
exc	-5246
exe	-5247
eys	-5248
fid	-5249
gar	-5250
ham	-5251
haz	-5252
hus	-5253
huz	-5254
iba	-5255
ika	-5256
ily	-5257
ilē	-5258
ima	-5259
ime	-5260
imm	-5261
imt	-5262
inn	-5263
inu	-5264
iod	-5265
irr	-5266
isc	-5267
ita	-5268
ith	-5269
itu	-5270
itī	-5271
iša	-5272
išh	-5273
kim	-5274
kin	-5275
kir	-5276
klu	-5277
kūn	-5278
lah	-5279
lia	-5280
lid	-5281
lim	-5282
lts	-5283
lum	-5284
mam	-5285
mar	-5286
mat	-5287
may	-5288
mes	-5289
mim	-5290
miš	-5291
nak	-5292
naq	-5293
new	-5294
nir	-5295
nān	-5296
nāṣ	-5297
oak	-5298
ook	-5299
giv	-5300
hut	-5301
iru	-5302
oup	-5303
owl	-5304
oyn	-5305
pil	-5306
pin	-5307
pon	-5308
pot	-5309
ppe	-5310
pre	-5311
pur	-5312
put	-5313
qat	-5314
qin	-5315
qur	-5316
rab	-5317
rag	-5318
ral	-5319
ram	-5320
ran	-5321
reb	-5322
ref	-5323
rik	-5324
rim	-5325
rin	-5326
ris	-5327
sar	-5328
see	-5329
sen	-5330
sim	-5331
sub	-5332
tod	-5333
tom	-5334
tul	-5335
tun	-5336
tāb	-5337
ual	-5338
uhš	-5339
ulb	-5340
umb	-5341
umd	-5342
ump	-5343
uta	-5344
ute	-5345
val	-5346
van	-5347
vis	-5348
wis	-5349
wiš	-5350
yle	-5351
zil	-5352
zit	-5353
ābu	-5354
āka	-5355
ānu	-5356
īdi	-5357
šhe	-5358
šēp	-5359
ṣum	-5360
ṭīb	-5361
▁"1	-5362
▁"7	-5363
▁"[	-5364
▁'(	-5365
▁("	-5366
▁(2	-5367
▁--	-5368
▁.'	-5369
▁.5	-5370
▁1)	-5371
▁1-	-5372
▁1;	-5373
▁3+	-5374
▁39	-5375
▁5+	-5376
▁59	-5377
▁64	-5378
▁76	-5379
▁78	-5380
▁85	-5381
▁?,	-5382
▁?.	-5383
▁["	-5384
▁[2	-5385
▁[?	-5386
▁].	-5387
▁au	-5388
▁ay	-5389
▁bi	-5390
▁di	-5391
▁ep	-5392
▁iy	-5393
▁ka	-5394
▁ld	-5395
▁ni	-5396
▁nē	-5397
▁nī	-5398
▁oc	-5399
!'.	-5400
agg	-5401
iza	-5402
nik	-5403
oll	-5404
pli	-5405
rip	-5406
sag	-5407
sho	-5408
tuh	-5409
ālu	-5410
▁"(	-5411
▁71	-5412
▁98	-5413
▁[3	-5414
▁]-	-5415
▁sā	-5416
▁uk	-5417
▁ut	-5418
▁wi	-5419
▁zû	-5420
▁ān	-5421
▁še	-5422
▁šē	-5423
▁šī	-5424
...'	-5425
...-	-5426
...;	-5427
...>	-5428
9]6?	-5429
aban	-5430
abil	-5431
aced	-5432
agum	-5433
aher	-5434
ahur	-5435
akšu	-5436
alga	-5437
alls	-5438
amit	-5439
anit	-5440
ardu	-5441
arnt	-5442
arti	-5443
asur	-5444
avow	-5445
ašar	-5446
ašas	-5447
back	-5448
bead	-5449
beer	-5450
bing	-5451
bird	-5452
bowl	-5453
cern	-5454
cert	-5455
cest	-5456
city	-5457
cked	-5458
cogn	-5459
cost	-5460
culd	-5461
dain	-5462
datu	-5463
dden	-5464
duct	-5465
edar	-5466
eded	-5467
ediz	-5468
eeth	-5469
eing	-5470
ekls	-5471
elil	-5472
ense	-5473
enth	-5474
ents	-5475
enum	-5476
erem	-5477
erum	-5478
esnt	-5479
fame	-5480
fare	-5481
fest	-5482
firm	-5483
gher	-5484
gots	-5485
hana	-5486
haul	-5487
head	-5488
hers	-5489
hest	-5490
hisp	-5491
ibba	-5492
ibiš	-5493
idic	-5494
ient	-5495
ihat	-5496
ihum	-5497
ikur	-5498
ilar	-5499
eks	-5500
emy	-5501
mos	-5502
owe	-5503
own	-5504
ubu	-5505
ušq	-5506
āšu	-5507
šun	-5508
▁62	-5509
▁jo	-5510
▁za	-5511
ague	-5512
akaš	-5513
akum	-5514
ašat	-5515
duty	-5516
free	-5517
gate	-5518
hala	-5519
hick	-5520
idow	-5521
ilil	-5522
ilim	-5523
ills	-5524
ilma	-5525
ilūs	-5526
iman	-5527
imea	-5528
inam	-5529
inat	-5530
ingu	-5531
inst	-5532
ires	-5533
iruš	-5534
isum	-5535
itil	-5536
itiz	-5537
itra	-5538
ittī	-5539
izum	-5540
išin	-5541
kaba	-5542
kunu	-5543
lamm	-5544
left	-5545
lled	-5546
look	-5547
lver	-5548
meša	-5549
ming	-5550
moon	-5551
most	-5552
must	-5553
ndri	-5554
nesh	-5555
onse	-5556
orty	-5557
osen	-5558
ower	-5559
oyed	-5560
pass	-5561
pins	-5562
plic	-5563
pots	-5564
qiya	-5565
rage	-5566
rest	-5567
roar	-5568
roke	-5569
rons	-5570
rook	-5571
rēṣì	-5572
sequ	-5573
ship	-5574
sill	-5575
sive	-5576
sold	-5577
star	-5578
such	-5579
tell	-5580
tend	-5581
tent	-5582
tika	-5583
tile	-5584
town	-5585
ulmi	-5586
umaš	-5587
unci	-5588
uniš	-5589
urak	-5590
usic	-5591
uted	-5592
vere	-5593
vide	-5594
wana	-5595
want	-5596
waya	-5597
wise	-5598
work	-5599
!'"	-5600
hud	-5601
nua	-5602
olt	-5603
rud	-5604
uda	-5605
udu	-5606
▁73	-5607
▁?)	-5608
▁zi	-5609
].""	-5610
ahte	-5611
amea	-5612
arša	-5613
case	-5614
dear	-5615
ders	-5616
ease	-5617
elry	-5618
fees	-5619
fied	-5620
ifte	-5621
innu	-5622
olut	-5623
tama	-5624
udum	-5625
year	-5626
ziga	-5627
zuba	-5628
zālu	-5629
ānus	-5630
šana	-5631
šuen	-5632
šāya	-5633
ṭiab	-5634
▁102	-5635
▁104	-5636
▁108	-5637
▁110	-5638
▁114	-5639
▁12.	-5640
▁121	-5641
▁122	-5642
▁126	-5643
▁127	-5644
▁129	-5645
▁13+	-5646
▁130	-5647
▁15,	-5648
▁15?	-5649
▁16,	-5650
▁160	-5651
▁195	-5652
▁20,	-5653
▁226	-5654
▁24?	-5655
▁250	-5656
▁26!	-5657
▁27!	-5658
▁30,	-5659
▁320	-5660
▁400	-5661
▁42?	-5662
▁4[9	-5663
▁[51	-5664
▁abū	-5665
▁adi	-5666
▁aha	-5667
▁aim	-5668
▁ama	-5669
▁amd	-5670
▁amu	-5671
▁amy	-5672
▁ana	-5673
▁ang	-5674
▁bas	-5675
▁bir	-5676
▁bis	-5677
▁bot	-5678
▁buh	-5679
▁cat	-5680
▁cow	-5681
▁cre	-5682
▁cub	-5683
▁dem	-5684
▁der	-5685
▁dil	-5686
▁dir	-5687
▁dog	-5688
▁duk	-5689
▁fam	-5690
▁fol	-5691
▁gab	-5692
▁gan	-5693
▁gaz	-5694
▁hon	-5695
▁hos	-5696
▁hot	-5697
▁hte	-5698
▁hul	-5699
)!"	-5700
]!"	-5701
cip	-5702
ibu	-5703
ipi	-5704
nia	-5705
tap	-5706
▁95	-5707
▁96	-5708
fish	-5709
fold	-5710
hili	-5711
ibra	-5712
made	-5713
mbol	-5714
show	-5715
uely	-5716
uhum	-5717
▁1),	-5718
▁14]	-5719
▁30-	-5720
▁buṭ	-5721
▁fom	-5722
▁hut	-5723
▁idī	-5724
▁inw	-5725
▁kas	-5726
▁kay	-5727
▁kaz	-5728
▁kid	-5729
▁kim	-5730
▁kuš	-5731
▁lah	-5732
▁lam	-5733
▁liw	-5734
▁log	-5735
▁lur	-5736
▁mad	-5737
▁mih	-5738
▁mum	-5739
▁nad	-5740
▁nis	-5741
▁paz	-5742
▁pet	-5743
▁pit	-5744
▁pus	-5745
▁qab	-5746
▁qat	-5747
▁rag	-5748
▁rel	-5749
▁sea	-5750
▁sic	-5751
▁sie	-5752
▁sin	-5753
▁ske	-5754
▁squ	-5755
▁tan	-5756
▁tat	-5757
▁taz	-5758
▁tow	-5759
▁uot	-5760
▁vis	-5761
▁vul	-5762
▁waw	-5763
▁waz	-5764
▁zah	-5765
▁zak	-5766
▁zap	-5767
▁zim	-5768
▁zul	-5769
▁šaz	-5770
▁šep	-5771
▁šus	-5772
▁ṣul	-5773
(...)	-5774
(?)."	-5775
."...	-5776
...""	-5777
...),	-5778
...."	-5779
?...]	-5780
abled	-5781
abuwa	-5782
adden	-5783
ained	-5784
alaya	-5785
allal	-5786
anied	-5787
appil	-5788
araya	-5789
arian	-5790
arioi	-5791
arted	-5792
assum	-5793
atten	-5794
ašabi	-5795
ašmiš	-5796
aššar	-5797
bilum	-5798
class	-5799
?'"	-5800
▁,?	-5801
(?)]	-5802
deed	-5803
ends	-5804
ffic	-5805
sist	-5806
wani	-5807
▁17,	-5808
▁173	-5809
▁40?	-5810
▁eri	-5811
▁fig	-5812
▁pig	-5813
▁saw	-5814
▁uzu	-5815
appin	-5816
buala	-5817
clear	-5818
dated	-5819
eliya	-5820
elong	-5821
eness	-5822
essed	-5823
exist	-5824
expen	-5825
ffers	-5826
flour	-5827
forth	-5828
hamed	-5829
hanum	-5830
hatal	-5831
hcant	-5832
huala	-5833
hunum	-5834
icing	-5835
iders	-5836
igned	-5837
incip	-5838
iners	-5839
ining	-5840
inner	-5841
irror	-5842
isaba	-5843
isely	-5844
iskum	-5845
isted	-5846
itive	-5847
ittee	-5848
itute	-5849
ivity	-5850
iwada	-5851
iwali	-5852
ixing	-5853
kuhum	-5854
lamma	-5855
libba	-5856
liest	-5857
litre	-5858
loads	-5859
malia	-5860
malkī	-5861
matān	-5862
mbers	-5863
mency	-5864
mātān	-5865
naqid	-5866
night	-5867
olent	-5868
onent	-5869
order	-5870
oring	-5871
ornam	-5872
orthe	-5873
osely	-5874
othed	-5875
oured	-5876
ously	-5877
pliah	-5878
poses	-5879
rance	-5880
rator	-5881
reued	-5882
rings	-5883
roper	-5884
sacks	-5885
sheke	-5886
slave	-5887
sānum	-5888
taken	-5889
tered	-5890
three	-5891
tihas	-5892
tiply	-5893
twice	-5894
uhama	-5895
unaya	-5896
unuwa	-5897
upizi	-5898
uring	-5899
bug	-5900
glu	-5901
šia	-5902
alia	-5903
arns	-5904
been	-5905
fron	-5906
ihšu	-5907
lītu	-5908
nies	-5909
pted	-5910
uhut	-5911
ummī	-5912
▁142	-5913
▁221	-5914
▁223	-5915
▁aze	-5916
alidi	-5917
dress	-5918
ginal	-5919
hanis	-5920
ilali	-5921
iture	-5922
month	-5923
pared	-5924
users	-5925
using	-5926
usten	-5927
utual	-5928
ušala	-5929
valid	-5930
value	-5931
verse	-5932
wardi	-5933
water	-5934
weave	-5935
weigh	-5936
šamši	-5937
ūriya	-5938
▁...!	-5939
▁...9	-5940
▁0.5,	-5941
▁0.5?	-5942
▁0.5]	-5943
▁1.5!	-5944
▁10:1	-5945
▁10[+	-5946
▁11?)	-5947
▁2(?)	-5948
▁25.5	-5949
▁30.5	-5950
▁32.5	-5951
▁36.5	-5952
▁4(?)	-5953
▁40.5	-5954
▁50.5	-5955
▁[1.5	-5956
▁abus	-5957
▁agia	-5958
▁akim	-5959
▁allu	-5960
▁alwa	-5961
▁anum	-5962
▁aput	-5963
▁arun	-5964
▁assu	-5965
▁azul	-5966
▁bani	-5967
▁bars	-5968
▁bebē	-5969
▁bene	-5970
▁beru	-5971
▁buis	-5972
▁burd	-5973
▁buys	-5974
▁buzu	-5975
▁buṣu	-5976
▁buṣū	-5977
▁bēlu	-5978
▁bēlī	-5979
▁caut	-5980
▁cool	-5981
▁dami	-5982
▁dare	-5983
▁date	-5984
▁datu	-5985
▁dazu	-5986
▁desp	-5987
▁dise	-5988
▁donk	-5989
▁door	-5990
▁dres	-5991
▁easy	-5992
▁eave	-5993
▁ebla	-5994
▁enam	-5995
▁ennu	-5996
▁enqu	-5997
▁exud	-5998
▁fals	-5999
?.'	-6000
-[],	-6001
akua	-6002
aššu	-6003
enna	-6004
ggle	-6005
next	-6006
ousy	-6007
trad	-6008
tune	-6009
▁23!	-6010
▁[].	-6011
▁tap	-6012
apons	-6013
elamm	-6014
extra	-6015
falls	-6016
hišna	-6017
litka	-6018
offer	-6019
opens	-6020
osite	-6021
perly	-6022
piece	-6023
sheep	-6024
shell	-6025
▁27.5	-6026
▁35.5	-6027
▁ašet	-6028
▁bazi	-6029
▁fast	-6030
▁feel	-6031
▁fell	-6032
▁file	-6033
▁form	-6034
▁fuel	-6035
▁furn	-6036
▁gali	-6037
▁galu	-6038
▁grab	-6039
▁grie	-6040
▁habt	-6041
▁hada	-6042
▁halg	-6043
▁hang	-6044
▁hard	-6045
▁hems	-6046
▁hide	-6047
▁horn	-6048
▁hura	-6049
▁ibbi	-6050
▁ikūa	-6051
▁ilum	-6052
▁inha	-6053
▁inib	-6054
▁insu	-6055
▁isar	-6056
▁isum	-6057
▁itur	-6058
▁ivth	-6059
▁išdu	-6060
▁išhi	-6061
▁išma	-6062
▁iṭab	-6063
▁iṭīb	-6064
▁jeal	-6065
▁kask	-6066
▁kida	-6067
▁kizi	-6068
▁knew	-6069
▁kukū	-6070
▁kumd	-6071
▁lack	-6072
▁late	-6073
▁lick	-6074
▁lipi	-6075
▁lock	-6076
▁loss	-6077
▁love	-6078
▁luhr	-6079
▁luhs	-6080
▁mana	-6081
▁mati	-6082
▁mean	-6083
▁mont	-6084
▁morn	-6085
▁muan	-6086
▁mule	-6087
▁muti	-6088
▁mīšu	-6089
▁napr	-6090
▁news	-6091
▁nice	-6092
▁nide	-6093
▁niya	-6094
▁nuhš	-6095
▁null	-6096
▁nīde	-6097
▁oper	-6098
▁opin	-6099
tih	-6100
tiy	-6101
▁ʾ.	-6102
+0.5	-6103
dark	-6104
face	-6105
upid	-6106
šaša	-6107
▁1:6	-6108
akniš	-6109
basis	-6110
ciers	-6111
drawn	-6112
ields	-6113
loans	-6114
ounce	-6115
payer	-6116
seize	-6117
world	-6118
wēdum	-6119
▁41.5	-6120
▁42.5	-6121
▁46.5	-6122
▁48.5	-6123
▁haši	-6124
▁ours	-6125
▁outf	-6126
▁pair	-6127
▁pard	-6128
▁past	-6129
▁peru	-6130
▁play	-6131
▁plur	-6132
▁pome	-6133
▁port	-6134
▁pušq	-6135
▁pūsu	-6136
▁ring	-6137
▁rise	-6138
▁ritu	-6139
▁rugs	-6140
▁sand	-6141
▁sash	-6142
▁sass	-6143
▁sers	-6144
▁shek	-6145
▁sina	-6146
▁sins	-6147
▁sned	-6148
▁spot	-6149
▁stop	-6150
▁subm	-6151
▁subt	-6152
▁such	-6153
▁sued	-6154
▁suit	-6155
▁taki	-6156
▁tana	-6157
▁tapp	-6158
▁tari	-6159
▁ther	-6160
▁thir	-6161
▁tida	-6162
▁toil	-6163
▁toll	-6164
▁tomb	-6165
▁tree	-6166
▁trew	-6167
▁type	-6168
▁ubar	-6169
▁uqur	-6170
▁uršu	-6171
▁usub	-6172
▁vent	-6173
▁wage	-6174
▁wald	-6175
▁wear	-6176
▁wide	-6177
▁work	-6178
▁wtih	-6179
▁zaba	-6180
▁ziki	-6181
▁ziya	-6182
▁zuku	-6183
▁zuzū	-6184
▁īnah	-6185
▁šada	-6186
▁šaha	-6187
▁šime	-6188
▁šina	-6189
▁šēdu	-6190
(?)...	-6191
-...""	-6192
.6666]	-6193
abiaya	-6194
access	-6195
alance	-6196
analam	-6197
annina	-6198
anning	-6199
'",	-6200
gran	-6201
moil	-6202
true	-6203
▁[15	-6204
▁yea	-6205
▁ṣip	-6206
▁ṭab	-6207
arean	-6208
aššum	-6209
itiša	-6210
kullī	-6211
posts	-6212
vened	-6213
▁15:1	-6214
▁16:1	-6215
▁mišu	-6216
▁move	-6217
▁pole	-6218
▁pots	-6219
▁ubra	-6220
▁welf	-6221
▁zuma	-6222
antial	-6223
assunu	-6224
atuwar	-6225
atānum	-6226
ašatta	-6227
banini	-6228
bitant	-6229
butted	-6230
buying	-6231
cedure	-6232
charge	-6233
cified	-6234
closed	-6235
cloths	-6236
credit	-6237
curred	-6238
deduct	-6239
donkey	-6240
elliti	-6241
essing	-6242
gation	-6243
giving	-6244
guards	-6245
hamtum	-6246
harsum	-6247
hiliya	-6248
hudida	-6249
huttum	-6250
icated	-6251
idered	-6252
ihatum	-6253
inannī	-6254
inatal	-6255
inding	-6256
ingots	-6257
intact	-6258
irians	-6259
ithout	-6260
ittles	-6261
izānum	-6262
labrat	-6263
lation	-6264
lender	-6265
liance	-6266
liness	-6267
listen	-6268
maliya	-6269
malkum	-6270
mannum	-6271
namely	-6272
nesses	-6273
ointed	-6274
orting	-6275
ousand	-6276
paying	-6277
pilšan	-6278
profit	-6279
racted	-6280
rupted	-6281
sealed	-6282
stones	-6283
strain	-6284
strong	-6285
submit	-6286
tablet	-6287
tiness	-6288
udated	-6289
uduman	-6290
ulanum	-6291
urgent	-6292
urānum	-6293
ustive	-6294
usārum	-6295
wedāku	-6296
yields	-6297
ēlānum	-6298
ēmānum	-6299
]+3	-6300
]?,	-6301
balā	-6302
disk	-6303
igga	-6304
pret	-6305
▁'40	-6306
▁(!)	-6307
▁040	-6308
▁ciy	-6309
](?);	-6310
]+3.5	-6311
ahuna	-6312
erien	-6313
hišan	-6314
idden	-6315
iddin	-6316
kitti	-6317
ublam	-6318
wišti	-6319
▁1500	-6320
▁1:8.	-6321
▁38.5	-6322
▁5000	-6323
▁52.5	-6324
▁58.5	-6325
▁[40?	-6326
▁bašu	-6327
▁felt	-6328
▁išīm	-6329
▁kazu	-6330
▁kupr	-6331
▁oxen	-6332
▁sapt	-6333
▁turi	-6334
anyone	-6335
araean	-6336
balāṭī	-6337
celled	-6338
iddina	-6339
lawful	-6340
ndries	-6341
pretor	-6342
surely	-6343
taklāk	-6344
▁...!"	-6345
▁....,	-6346
▁.....	-6347
▁...50	-6348
▁...;[	-6349
▁...].	-6350
▁100:1	-6351
▁[...,	-6352
▁[2.5]	-6353
▁abada	-6354
▁aband	-6355
▁abars	-6356
▁abubu	-6357
▁abuna	-6358
▁abuse	-6359
▁adawa	-6360
▁ahuša	-6361
▁ahušu	-6362
▁aired	-6363
▁akabi	-6364
▁akali	-6365
▁akazi	-6366
▁akuku	-6367
▁alāku	-6368
▁amura	-6369
▁andāl	-6370
▁anina	-6371
▁appar	-6372
▁arate	-6373
▁arawa	-6374
▁araši	-6375
▁arbit	-6376
▁ariya	-6377
▁asaya	-6378
▁ashes	-6379
▁asuwa	-6380
▁asšur	-6381
▁aziya	-6382
▁ašuan	-6383
▁babaš	-6384
▁balzu	-6385
▁batna	-6386
▁beams	-6387
▁blame	-6388
▁blind	-6389
▁bonds	-6390
▁books	-6391
▁bride	-6392
▁bursa	-6393
▁busia	-6394
▁buṣua	-6395
▁calum	-6396
▁centr	-6397
▁chase	-6398
▁cheer	-6399
.28	-6400
.2.5	-6401
nisu	-6402
▁90,	-6403
▁axe	-6404
▁jew	-6405
azaza	-6406
hašna	-6407
hašut	-6408
hoods	-6409
ilsum	-6410
merum	-6411
mātēn	-6412
šilli	-6413
▁1060	-6414
▁[?],	-6415
▁glad	-6416
▁huhu	-6417
▁ikra	-6418
▁pusu	-6419
▁zaza	-6420
▁zira	-6421
entory	-6422
finite	-6423
ganise	-6424
igaššu	-6425
itizen	-6426
lamaša	-6427
saying	-6428
unalam	-6429
wedaku	-6430
▁began	-6431
▁cound	-6432
▁crook	-6433
▁dadum	-6434
▁dagan	-6435
▁dalas	-6436
▁debit	-6437
▁deeds	-6438
▁dimin	-6439
▁duglu	-6440
▁dumuq	-6441
▁dādum	-6442
▁eight	-6443
▁elder	-6444
▁ennau	-6445
▁epoyn	-6446
▁eruzi	-6447
▁fails	-6448
▁feast	-6449
▁fetch	-6450
▁fills	-6451
▁flour	-6452
▁focus	-6453
▁forth	-6454
▁gadub	-6455
▁halga	-6456
▁hanum	-6457
▁harta	-6458
▁haršu	-6459
▁hasut	-6460
▁hattu	-6461
▁hears	-6462
▁hišar	-6463
▁ibkum	-6464
▁idaya	-6465
▁ididi	-6466
▁idiya	-6467
▁iduwa	-6468
▁ikūnu	-6469
▁ilali	-6470
▁ilill	-6471
▁ilina	-6472
▁iluwa	-6473
▁ilver	-6474
▁ilāya	-6475
▁ilīma	-6476
▁imper	-6477
▁ingot	-6478
▁inita	-6479
▁initi	-6480
▁insul	-6481
▁isuhu	-6482
▁išpun	-6483
▁išuah	-6484
▁kalan	-6485
▁kassu	-6486
▁kilya	-6487
▁kukru	-6488
▁kullu	-6489
▁kunan	-6490
▁kurzī	-6491
▁kuzāz	-6492
▁light	-6493
▁lower	-6494
▁madub	-6495
▁manua	-6496
▁manum	-6497
▁mayor	-6498
▁meant	-6499
▁"27	-6500
▁5(+	-6501
▁638	-6502
▁[4]	-6503
▁ugi	-6504
šamsī	-6505
▁1280	-6506
▁19[7	-6507
▁1:10	-6508
▁1:8,	-6509
▁[10]	-6510
▁[40+	-6511
▁coax	-6512
▁solv	-6513
▁zumu	-6514
malkim	-6515
stands	-6516
▁biltu	-6517
▁kaneš	-6518
▁meari	-6519
▁meets	-6520
▁mercy	-6521
▁mihhu	-6522
▁miles	-6523
▁mules	-6524
▁music	-6525
▁nahur	-6526
▁naram	-6527
▁nizum	-6528
▁oaths	-6529
▁often	-6530
▁older	-6531
▁opens	-6532
▁pabil	-6533
▁payed	-6534
▁peace	-6535
▁point	-6536
▁pract	-6537
▁prime	-6538
▁puzer	-6539
▁qatna	-6540
▁rages	-6541
▁react	-6542
▁repay	-6543
▁reply	-6544
▁reput	-6545
▁rider	-6546
▁rules	-6547
▁rumor	-6548
▁salme	-6549
▁seald	-6550
▁sends	-6551
▁seper	-6552
▁shame	-6553
▁shape	-6554
▁siler	-6555
▁stair	-6556
▁stalk	-6557
▁stays	-6558
▁style	-6559
▁sulmi	-6560
▁suppū	-6561
▁tahur	-6562
▁takes	-6563
▁talks	-6564
▁tamur	-6565
▁taqin	-6566
▁tarik	-6567
▁tarām	-6568
▁tegra	-6569
▁tells	-6570
▁thick	-6571
▁tothe	-6572
▁trips	-6573
▁tuwar	-6574
▁ubaya	-6575
▁ukuwa	-6576
▁ulaya	-6577
▁unabi	-6578
▁unple	-6579
▁urāya	-6580
▁using	-6581
▁utaya	-6582
▁vidic	-6583
▁vulva	-6584
▁wahte	-6585
▁waist	-6586
▁waste	-6587
▁woman	-6588
▁worse	-6589
▁woven	-6590
▁yarns	-6591
▁zalpe	-6592
▁zikum	-6593
▁zilat	-6594
▁zizul	-6595
▁zizum	-6596
▁šaddu	-6597
▁šahiš	-6598
▁šakri	-6599
ēṣī	-6600
.333	-6601
bisu	-6602
ēzam	-6603
▁'17	-6604
aggaš	-6605
garri	-6606
given	-6607
imttī	-6608
kirts	-6609
liddi	-6610
mišar	-6611
naked	-6612
nirši	-6613
nāṣir	-6614
ollen	-6615
range	-6616
shoes	-6617
sūrik	-6618
today	-6619
tulid	-6620
viour	-6621
wašhe	-6622
▁"160	-6623
▁7:1,	-6624
▁93.5	-6625
▁[()]	-6626
▁aunt	-6627
▁crim	-6628
▁dulb	-6629
▁frag	-6630
▁grip	-6631
▁haqa	-6632
▁lump	-6633
▁skin	-6634
▁torn	-6635
▁usmû	-6636
▁zûlu	-6637
▁ānah	-6638
culate	-6639
ellitī	-6640
excise	-6641
hazira	-6642
išhuna	-6643
iškinu	-6644
liment	-6645
nikašu	-6646
nāniya	-6647
puriya	-6648
risent	-6649
ritual	-6650
sarrum	-6651
simply	-6652
vances	-6653
zilili	-6654
▁0.333	-6655
▁[9]6?	-6656
▁cloak	-6657
▁drank	-6658
▁ideas	-6659
▁iyant	-6660
▁lālum	-6661
▁mezit	-6662
▁nēreb	-6663
▁shawl	-6664
▁silvr	-6665
▁šaktu	-6666
▁šarra	-6667
▁šazua	-6668
▁šašas	-6669
▁šezur	-6670
▁šikti	-6671
▁šimaš	-6672
▁šuaya	-6673
▁šuhur	-6674
▁šulmu	-6675
▁šūmam	-6676
-[...];	-6677
;0.3333	-6678
another	-6679
arioius	-6680
azuzaya	-6681
belongs	-6682
cestral	-6683
conduct	-6684
culding	-6685
declare	-6686
earlier	-6687
engthen	-6688
enience	-6689
eremony	-6690
ferably	-6691
fidious	-6692
hinnāya	-6693
huzānum	-6694
iamassī	-6695
isation	-6696
iscated	-6697
itariya	-6698
leather	-6699
birds	-6700
igāšu	-6701
weeks	-6702
akšuna	-6703
anamea	-6704
asured	-6705
fested	-6706
ilmašu	-6707
ilūssu	-6708
ipient	-6709
seeded	-6710
shorty	-6711
▁abūbu	-6712
▁ahead	-6713
▁birtu	-6714
▁cedar	-6715
▁enemy	-6716
▁fifte	-6717
▁folks	-6718
▁humaš	-6719
▁iṭiab	-6720
▁kinam	-6721
▁memos	-6722
▁power	-6723
▁sagum	-6724
▁teeth	-6725
▁whisp	-6726
▁widow	-6727
▁ṣaher	-6728
cerning	-6729
confirm	-6730
duction	-6731
edizina	-6732
immittī	-6733
ination	-6734
instead	-6735
managed	-6736
mulānum	-6737
olution	-6738
pendent	-6739
posited	-6740
provide	-6741
qatatum	-6742
rabiāku	-6743
refined	-6744
resesnt	-6745
saddles	-6746
sistent	-6747
stating	-6748
taklāka	-6749
telling	-6750
tenance	-6751
tuhānum	-6752
uctions	-6753
umbered	-6754
uniānus	-6755
uštaean	-6756
wishers	-6757
workers	-6758
▁1.1666	-6759
▁7.3333	-6760
▁[?].""	-6761
▁abiruš	-6762
▁abussa	-6763
▁acting	-6764
▁adūdum	-6765
▁affect	-6766
▁ahmaya	-6767
▁ahuqar	-6768
▁akūtum	-6769
▁alahum	-6770
▁alitum	-6771
▁alulur	-6772
▁alwana	-6773
▁always	-6774
▁annexe	-6775
▁annima	-6776
▁anonym	-6777
▁anyway	-6778
▁argued	-6779
▁artama	-6780
▁arzālu	-6781
▁ayarti	-6782
▁ašuwan	-6783
▁babala	-6784
▁babali	-6785
▁babaya	-6786
▁badiya	-6787
▁balṭum	-6788
▁basasa	-6789
▁behest	-6790
▁belulu	-6791
▁biltum	-6792
▁bisaya	-6793
▁boards	-6794
▁border	-6795
▁bottom	-6796
▁breast	-6797
▁budaya	-6798
▁bulina	-6799
mixing	-6800
symbol	-6801
trader	-6802
▁kakua	-6803
▁sieve	-6804
▁ušbug	-6805
▁zapru	-6806
obverse	-6807
▁(...),	-6808
▁bursts	-6809
▁butkum	-6810
▁butter	-6811
▁buyers	-6812
▁buzazu	-6813
▁buzizi	-6814
▁bēlulu	-6815
▁called	-6816
▁carted	-6817
▁chases	-6818
▁cheats	-6819
▁choose	-6820
▁chosen	-6821
▁commit	-6822
▁confer	-6823
▁conrol	-6824
▁convoy	-6825
▁copied	-6826
▁course	-6827
▁cowrie	-6828
▁create	-6829
▁cubits	-6830
▁dadani	-6831
▁dakniš	-6832
▁debate	-6833
▁debtof	-6834
▁deceit	-6835
▁defame	-6836
▁denies	-6837
▁didiya	-6838
▁dilaya	-6839
▁diliya	-6840
▁dinner	-6841
▁duduli	-6842
▁duduna	-6843
▁dukšum	-6844
▁dumeni	-6845
▁dunned	-6846
▁duplic	-6847
▁edišin	-6848
▁elders	-6849
▁eluhut	-6850
▁enable	-6851
▁ennnam	-6852
▁entire	-6853
▁erraya	-6854
▁esteem	-6855
▁extend	-6856
▁family	-6857
▁fatten	-6858
▁feared	-6859
▁fibula	-6860
▁flasks	-6861
▁forbid	-6862
▁former	-6863
▁fourth	-6864
▁gained	-6865
▁ganaya	-6866
▁habiya	-6867
▁hadāya	-6868
▁handle	-6869
▁hannan	-6870
▁hanāya	-6871
▁happen	-6872
▁haraba	-6873
▁harmed	-6874
▁hatika	-6875
▁hattuš	-6876
▁haššui	-6877
▁heated	-6878
▁height	-6879
▁hidden	-6880
▁hiding	-6881
▁higher	-6882
▁hiring	-6883
▁honour	-6884
▁hubazi	-6885
▁hubuzi	-6886
▁huluba	-6887
▁hunger	-6888
▁hurata	-6889
▁huršun	-6890
▁ibnaya	-6891
▁ikunum	-6892
▁ikuppī	-6893
▁inanna	-6894
▁incurs	-6895
▁ingots	-6896
▁intent	-6897
▁isalia	-6898
▁isihum	-6899
binannī	-6900
▁itiles	-6901
▁izizam	-6902
▁išhili	-6903
▁joined	-6904
▁kabaya	-6905
▁kabiya	-6906
▁kaluwa	-6907
▁kamaru	-6908
▁kanaya	-6909
▁karawa	-6910
▁karria	-6911
▁kassum	-6912
▁kasāya	-6913
▁kazuba	-6914
▁kaššum	-6915
▁kubīdi	-6916
▁kududu	-6917
▁kukawa	-6918
▁kukidi	-6919
▁kukrin	-6920
▁kukuzi	-6921
▁kuraya	-6922
▁kutaba	-6923
▁kutiya	-6924
▁kuzari	-6925
▁kušmum	-6926
▁lahuta	-6927
▁laliya	-6928
▁lataya	-6929
▁latter	-6930
▁learnt	-6931
▁liwiru	-6932
▁loosen	-6933
▁lurmea	-6934
▁luzini	-6935
▁maduwa	-6936
▁maliya	-6937
▁malkua	-6938
▁masaya	-6939
▁mataga	-6940
▁melted	-6941
▁mirror	-6942
▁misery	-6943
▁mutual	-6944
▁nahria	-6945
▁nanali	-6946
▁narmea	-6947
▁nether	-6948
▁nimmar	-6949
▁niuman	-6950
▁normal	-6951
▁oblige	-6952
▁olives	-6953
▁ordeal	-6954
▁origin	-6955
▁owners	-6956
▁pazuzu	-6957
▁period	-6958
▁piglet	-6959
▁plague	-6960
▁poured	-6961
▁prayer	-6962
▁purify	-6963
▁pususu	-6964
▁qardum	-6965
▁recogn	-6966
▁recoup	-6967
▁regret	-6968
▁remits	-6969
▁repaid	-6970
▁rested	-6971
▁reveal	-6972
▁revolt	-6973
▁rimaši	-6974
▁robbed	-6975
▁rprice	-6976
▁ruined	-6977
▁rumors	-6978
▁rumour	-6979
▁sahrud	-6980
▁salary	-6981
▁salibu	-6982
▁sasaya	-6983
▁sashes	-6984
▁sating	-6985
▁saving	-6986
▁seizes	-6987
▁served	-6988
▁serves	-6989
▁severe	-6990
▁shamed	-6991
▁shames	-6992
▁sickle	-6993
▁signed	-6994
▁simply	-6995
▁singer	-6996
▁spirit	-6997
▁starve	-6998
▁states	-6999
▁izēzam	-7000
▁steppe	-7001
▁stores	-7002
▁storey	-7003
▁stroke	-7004
▁stupid	-7005
▁sukaya	-7006
▁suliya	-7007
▁supply	-7008
▁susten	-7009
▁swears	-7010
▁sāsiya	-7011
▁tamnia	-7012
▁tarkua	-7013
▁taziza	-7014
▁theirs	-7015
▁throat	-7016
▁tisabu	-7017
▁tisābu	-7018
▁tiwada	-7019
▁toggle	-7020
▁treats	-7021
▁triple	-7022
▁truely	-7023
▁tumana	-7024
▁tumlia	-7025
▁tupizi	-7026
▁unapse	-7027
▁unapše	-7028
▁unpaid	-7029
▁unrest	-7030
▁unsold	-7031
▁uproar	-7032
▁urmeša	-7033
▁utmost	-7034
▁uzinum	-7035
▁wailer	-7036
▁wander	-7037
▁wanted	-7038
▁wawali	-7039
▁wazida	-7040
▁wicked	-7041
▁wooden	-7042
▁worded	-7043
▁yields	-7044
▁zahula	-7045
▁zalidi	-7046
▁zalidī	-7047
▁zikayi	-7048
▁zizizi	-7049
▁zumaya	-7050
▁šabaya	-7051
▁šakṣum	-7052
▁šariša	-7053
▁šazuwa	-7054
▁šikkum	-7055
▁šulhus	-7056
▁šulmim	-7057
▁šumaya	-7058
▁šunāya	-7059
▁šuppil	-7060
▁šusāya	-7061
▁ṣuliya	-7062
+]2.6666	-7063
ahšušana	-7064
anything	-7065
assuring	-7066
attorney	-7067
bringing	-7068
capitals	-7069
charging	-7070
creditor	-7071
decision	-7072
discover	-7073
elonging	-7074
entitled	-7075
erienced	-7076
evidence	-7077
expenses	-7078
fficient	-7079
finished	-7080
granates	-7081
incipals	-7082
itioning	-7083
lammassī	-7084
massutum	-7085
mutappil	-7086
plements	-7087
pretends	-7088
question	-7089
remember	-7090
selected	-7091
shipment	-7092
somebody	-7093
tašmētim	-7094
tašmētum	-7095
tihasuti	-7096
together	-7097
ughtered	-7098
unciated	-7099
weighing	-7100
šarrassu	-7101
▁......"	-7102
▁...].""	-7103
▁0.3333]	-7104
▁1.66666	-7105
▁10.1666	-7106
▁12.6666	-7107
▁13.1666	-7108
▁14.3333	-7109
▁16.3333	-7110
▁19.6666	-7111
▁2.83333	-7112
▁20.6666	-7113
▁21.3333	-7114
▁22.6666	-7115
▁23.3333	-7116
▁24.3333	-7117
▁24.6666	-7118
▁26.3333	-7119
▁28.6666	-7120
▁29.3333	-7121
▁3.6666?	-7122
▁30.6666	-7123
▁31.6666	-7124
▁33.6666	-7125
▁36.6666	-7126
▁37.3333	-7127
▁40.3333	-7128
▁40.6666	-7129
▁41.1666	-7130
▁45.3333	-7131
▁50.6666	-7132
▁56.6666	-7133
▁59.6666	-7134
▁abaraya	-7135
▁abasiya	-7136
▁abduata	-7137
▁accused	-7138
▁adallal	-7139
▁aduduwa	-7140
▁akiānum	-7141
▁altered	-7142
▁alulāya	-7143
▁amyriya	-7144
▁andfrom	-7145
▁angered	-7146
▁anisaba	-7147
▁annoyed	-7148
▁anunuwa	-7149
▁appease	-7150
▁ashamed	-7151
▁assumed	-7152
▁attempt	-7153
▁attends	-7154
▁atūriya	-7155
▁availed	-7156
▁azukaya	-7157
▁azunaya	-7158
▁ašašabi	-7159
▁aššuruš	-7160
▁babalum	-7161
▁balṭuwa	-7162
▁barimea	-7163
▁barānum	-7164
▁belānum	-7165
▁benefit	-7166
▁blocked	-7167
▁borowed	-7168
▁borther	-7169
▁budātum	-7170
▁buhitar	-7171
▁buztāya	-7172
▁calling	-7173
▁calming	-7174
▁caraban	-7175
▁careful	-7176
▁catches	-7177
▁causing	-7178
▁central	-7179
▁citizen	-7180
▁cleaned	-7181
▁closely	-7182
▁clothed	-7183
▁coffers	-7184
▁colored	-7185
▁company	-7186
▁consequ	-7187
▁consume	-7188
▁content	-7189
▁context	-7190
▁crossed	-7191
▁debited	-7192
▁debtors	-7193
▁deceive	-7194
▁deprive	-7195
▁derived	-7196
▁disavow	-7197
▁disdain	-7198
▁disease	-7199
▁donated	-7200
▁dragged	-7201
▁dudurum	-7202
▁dumqaya	-7203
▁dumqiya	-7204
▁dunniya	-7205
▁edinaya	-7206
▁elabaya	-7207
▁elāliya	-7208
▁emmerum	-7209
▁encased	-7210
▁engaged	-7211
▁ennanat	-7212
▁ennānim	-7213
▁eponymn	-7214
▁epoynmy	-7215
▁ewarnum	-7216
▁exactly	-7217
▁exerted	-7218
▁explain	-7219
▁extingu	-7220
▁figures	-7221
▁flaring	-7222
▁forgive	-7223
▁fortune	-7224
▁gazanum	-7225
▁getting	-7226
▁gladden	-7227
▁granted	-7228
▁habuala	-7229
▁halitka	-7230
▁hamalia	-7231
▁hananna	-7232
▁hanigga	-7233
▁hanānum	-7234
▁harabet	-7235
▁harabiš	-7236
▁harziga	-7237
▁haršāya	-7238
▁hostile	-7239
▁huburhe	-7240
▁hunniya	-7241
▁husārum	-7242
▁ikuwaya	-7243
▁intends	-7244
▁interet	-7245
▁invited	-7246
▁involve	-7247
▁issūrik	-7248
▁itūraya	-7249
▁izkanum	-7250
▁jewelry	-7251
▁kabriya	-7252
▁kabātum	-7253
▁kakkaba	-7254
▁kakkiya	-7255
▁kakkuwa	-7256
▁kalamur	-7257
▁karways	-7258
▁kaskanu	-7259
▁kayatum	-7260
▁kikkiya	-7261
▁knowing	-7262
▁kudānum	-7263
▁kuluklu	-7264
▁kuluman	-7265
▁kurbiya	-7266
▁kutibiš	-7267
▁kuzāzum	-7268
▁kūnilum	-7269
▁labarša	-7270
▁lacking	-7271
▁lamassi	-7272
▁latarak	-7273
▁latarāk	-7274
▁leaders	-7275
▁libbiya	-7276
▁lighten	-7277
▁lāqēpum	-7278
▁malitil	-7279
▁managed	-7280
▁mannuba	-7281
▁mannuwa	-7282
▁marihšu	-7283
▁markuti	-7284
▁maršana	-7285
▁melting	-7286
▁members	-7287
▁menanum	-7288
▁minimum	-7289
▁misdeed	-7290
▁morning	-7291
▁muanika	-7292
▁mīšarum	-7293
▁nadibum	-7294
▁nakiled	-7295
▁nanakaš	-7296
▁napraka	-7297
▁nenassa	-7298
▁nibraru	-7299
▁nibrāru	-7300
▁nullify	-7301
▁obliged	-7302
▁offense	-7303
▁ofthree	-7304
▁operate	-7305
▁opinion	-7306
▁outward	-7307
▁pasallu	-7308
▁pasture	-7309
▁pithana	-7310
▁praying	-7311
▁preence	-7312
▁prevail	-7313
▁prevent	-7314
▁procure	-7315
▁pursuit	-7316
▁qablītu	-7317
▁qardāya	-7318
▁qatātum	-7319
▁qaṭṭara	-7320
▁qaṭṭarā	-7321
▁rations	-7322
▁reasons	-7323
▁recount	-7324
▁relying	-7325
▁repairs	-7326
▁replace	-7327
▁replied	-7328
▁reveals	-7329
▁revived	-7330
▁rimānum	-7331
▁rituals	-7332
▁robbing	-7333
▁rēmānum	-7334
▁saffron	-7335
▁saktāya	-7336
▁sandals	-7337
▁savings	-7338
▁scarves	-7339
▁seeking	-7340
▁setting	-7341
▁sheekls	-7342
▁shining	-7343
▁sickels	-7344
▁sikuhum	-7345
▁silvers	-7346
▁similar	-7347
▁sisters	-7348
▁skekels	-7349
▁solvent	-7350
▁spirits	-7351
▁spotted	-7352
▁stabled	-7353
▁started	-7354
▁steward	-7355
▁stocked	-7356
▁storing	-7357
▁subārum	-7358
▁sukuhum	-7359
▁supannu	-7360
▁surface	-7361
▁surpass	-7362
▁sūsānum	-7363
▁talking	-7364
▁tallānu	-7365
▁tanušta	-7366
▁tatardu	-7367
▁testify	-7368
▁testing	-7369
▁thecity	-7370
▁turhala	-7371
▁turmoil	-7372
▁ukappin	-7373
▁usāriya	-7374
▁venture	-7375
▁violent	-7376
▁warfare	-7377
▁warning	-7378
▁washing	-7379
▁weapons	-7380
▁welfare	-7381
▁whereas	-7382
▁whereby	-7383
▁withour	-7384
▁woolfor	-7385
▁woollen	-7386
▁younger	-7387
▁zaktaya	-7388
▁šadahar	-7389
▁šilmašu	-7390
▁šugarri	-7391
▁šuhanum	-7392
▁šuhunum	-7393
▁šuliman	-7394
▁ṣulliya	-7395
appearing	-7396
certified	-7397
deducting	-7398
ilaliuman	-7399
officials	-7400
ornaments	-7401
uhamazaya	-7402
▁10.83333	-7403
▁12.83333	-7404
▁1:6.3333	-7405
▁23.83333	-7406
▁30.83333	-7407
▁40.83333	-7408
▁42.83333	-7409
▁50.83333	-7410
▁ababayai	-7411
▁abušalim	-7412
▁accreued	-7413
▁accusers	-7414
▁acquires	-7415
▁activity	-7416
▁actually	-7417
▁akimātum	-7418
▁akkadiya	-7419
▁alienate	-7420
▁announce	-7421
▁anointed	-7422
▁aputriya	-7423
▁arunahšu	-7424
▁aršiahšu	-7425
▁asdunani	-7426
▁assemble	-7427
▁attacked	-7428
▁attended	-7429
▁babašiba	-7430
▁babbilum	-7431
▁badatiya	-7432
▁behaving	-7433
▁belalaya	-7434
▁blessing	-7435
▁bothered	-7436
▁breaking	-7437
▁buisness	-7438
▁burallum	-7439
▁burdened	-7440
▁buṭnātum	-7441
▁ceremony	-7442
▁charging	-7443
▁cheating	-7444
▁checking	-7445
▁clemency	-7446
▁commands	-7447
▁compared	-7448
▁computed	-7449
▁contains	-7450
▁criminal	-7451
▁crossing	-7452
▁customer	-7453
▁darkened	-7454
▁darkness	-7455
▁deathbed	-7456
▁deficits	-7457
▁definite	-7458
▁delaying	-7459
▁despatch	-7460
▁discover	-7461
▁distrain	-7462
▁diviners	-7463
▁drinking	-7464
▁dulbatum	-7465
▁earliest	-7466
▁eddināya	-7467
▁engaging	-7468
▁enišarum	-7469
▁ennumāya	-7470
▁estrange	-7471
▁everyone	-7472
▁expelled	-7473
▁gabattum	-7474
▁greeting	-7475
▁grinding	-7476
▁guarding	-7477
▁habtuniš	-7478
▁haburata	-7479
▁haššuili	-7480
▁herewith	-7481
▁hudubēlī	-7482
▁humašana	-7483
▁hunahuna	-7484
▁ikūnpīya	-7485
▁ikūppiya	-7486
▁imlikaya	-7487
▁implored	-7488
▁improper	-7489
▁included	-7490
▁infested	-7491
▁instance	-7492
▁istemple	-7493
▁išhianit	-7494
▁jealousy	-7495
▁kanwarta	-7496
▁kapatiya	-7497
▁kililsum	-7498
▁kukuziya	-7499
▁kumdānum	-7500
▁kupilšan	-7501
▁kuprurak	-7502
▁kurašmiš	-7503
▁kurkurum	-7504
▁kusatiya	-7505
▁lamassum	-7506
▁luhrahna	-7507
▁madubaya	-7508
▁mannumma	-7509
▁marušala	-7510
▁measured	-7511
▁meetings	-7512
▁merhcant	-7513
▁multiply	-7514
▁musician	-7515
▁nuhšātum	-7516
▁occurred	-7517
▁offended	-7518
▁opponent	-7519
▁opposite	-7520
▁organise	-7521
▁original	-7522
▁pardoned	-7523
▁pasallum	-7524
▁perished	-7525
▁planning	-7526
▁pleasant	-7527
▁pleasing	-7528
▁portions	-7529
▁positive	-7530
▁powerful	-7531
▁procured	-7532
▁properly	-7533
▁proposal	-7534
▁purposes	-7535
▁pušqānum	-7536
▁reaction	-7537
▁rebutted	-7538
▁recieves	-7539
▁refusing	-7540
▁relating	-7541
▁reminded	-7542
▁removing	-7543
▁replaced	-7544
▁replaces	-7545
▁response	-7546
▁resulted	-7547
▁salvaged	-7548
▁saptinnu	-7549
▁sasallum	-7550
▁sassātum	-7551
▁securing	-7552
▁securtiy	-7553
▁serserum	-7554
▁shearing	-7555
▁shortage	-7556
▁shoulder	-7557
▁sikkātum	-7558
▁smuggled	-7559
▁smuggler	-7560
▁squander	-7561
▁stripped	-7562
▁strongly	-7563
▁suitable	-7564
▁sundries	-7565
▁supannus	-7566
▁supplied	-7567
▁supports	-7568
▁tahazira	-7569
▁tahuruwa	-7570
▁tamkarum	-7571
▁tamkārum	-7572
▁tamuriya	-7573
▁tapaggaš	-7574
▁tarhišan	-7575
▁tarhuala	-7576
▁tarikuda	-7577
▁thousand	-7578
▁tismurna	-7579
▁transmit	-7580
▁traveled	-7581
▁traveler	-7582
▁treating	-7583
▁troubled	-7584
▁tumeliya	-7585
▁ubarzaya	-7586
▁unlawful	-7587
▁unopened	-7588
▁unsealed	-7589
▁usuranum	-7590
▁ušihatum	-7591
▁varioius	-7592
▁vidicate	-7593
▁wagonsin	-7594
▁wahtever	-7595
▁wahšušna	-7596
▁walhašna	-7597
▁walhišna	-7598
▁waliwali	-7599
▁wardānum	-7600
▁whenever	-7601
▁wherepon	-7602
▁whithout	-7603
▁witessed	-7604
▁šaktunua	-7605
▁šalahšua	-7606
▁šašasama	-7607
▁šiliuman	-7608
▁šubarean	-7609
▁šubarian	-7610
▁šuppibra	-7611
▁ṣallāmun	-7612
concerning	-7613
confirming	-7614
containing	-7615
discovered	-7616
equivalent	-7617
everything	-7618
henceforth	-7619
implements	-7620
permission	-7621
profitable	-7622
witnessing	-7623
▁...9.3333	-7624
▁0.5(?)...	-7625
▁[0.3333?]	-7626
▁[16.6666]	-7627
▁abandoned	-7628
▁abarsisum	-7629
▁accompany	-7630
▁alienated	-7631
▁althought	-7632
▁ancestral	-7633
▁appealing	-7634
▁azitariya	-7635
▁balzuenum	-7636
▁behaviour	-7637
▁belittles	-7638
▁bēlassunu	-7639
▁calculate	-7640
▁calumnies	-7641
▁cauldrons	-7642
▁cautioned	-7643
▁commander	-7644
▁committed	-7645
▁committee	-7646
▁consisted	-7647
▁contantly	-7648
▁correctly	-7649
▁cupbearer	-7650
▁daughters	-7651
▁declaring	-7652
▁dedicated	-7653
▁demanding	-7654
▁denounced	-7655
▁destroyed	-7656
▁determine	-7657
▁dirtiness	-7658
▁disclosed	-7659
▁disrupted	-7660
▁eachother	-7661
▁elsewhere	-7662
▁enquiries	-7663
▁exchanged	-7664
▁executors	-7665
▁exhausted	-7666
▁expensive	-7667
▁falseness	-7668
▁fattening	-7669
▁favorably	-7670
▁fifteenth	-7671
▁fireplace	-7672
▁forbidden	-7673
▁forwarded	-7674
▁fragrance	-7675
▁furniture	-7676
▁gadubatum	-7677
▁greetings	-7678
▁halgiaššu	-7679
▁hamhamtum	-7680
▁hamizānum	-7681
▁hannāniya	-7682
▁happiahšu	-7683
▁happiānum	-7684
▁heartland	-7685
▁hurdunani	-7686
▁imploring	-7687
▁inculding	-7688
▁inherited	-7689
▁installed	-7690
▁insulting	-7691
▁inventory	-7692
▁involving	-7693
▁iyantalga	-7694
▁kalanašar	-7695
▁kammaliya	-7696
▁kanwartan	-7697
▁kapattiya	-7698
▁karnikašu	-7699
▁karzilili	-7700
▁kilinuman	-7701
▁kilirians	-7702
▁kukulanum	-7703
▁kukurānum	-7704
▁kunanamit	-7705
▁kusilānum	-7706
▁kususārum	-7707
▁kuzuzarum	-7708
▁kuzuzārum	-7709
▁luhuduman	-7710
▁malawašhe	-7711
▁mezitānum	-7712
▁mumulānum	-7713
▁otherwise	-7714
▁outfitted	-7715
▁outsiders	-7716
▁outskirts	-7717
▁overnight	-7718
▁personnel	-7719
▁pestering	-7720
▁pilahānum	-7721
▁posession	-7722
▁precisely	-7723
▁procedure	-7724
▁puzurkunu	-7725
▁recipient	-7726
▁regarding	-7727
▁releasing	-7728
▁remitting	-7729
▁repressed	-7730
▁reprisent	-7731
▁requested	-7732
▁resorting	-7733
▁respected	-7734
▁resulting	-7735
▁salatuwar	-7736
▁shipments	-7737
▁smugglers	-7738
▁specified	-7739
▁staircase	-7740
▁subaraean	-7741
▁submitted	-7742
▁surcharge	-7743
▁tanawišti	-7744
▁terrified	-7745
▁threefold	-7746
▁titinatal	-7747
▁troubling	-7748
▁tudhiliya	-7749
▁uzubiskum	-7750
▁validated	-7751
▁valudated	-7752
▁vindicate	-7753
▁wagonload	-7754
▁washaniya	-7755
▁wašanalam	-7756
▁wašunalam	-7757
▁whispered	-7758
▁yellowish	-7759
▁zilpuriya	-7760
▁zimišhuna	-7761
▁šabanātum	-7762
▁šakiškinu	-7763
▁šarakšuna	-7764
▁šarnigāšu	-7765
▁šimatānum	-7766
▁šinanātum	-7767
▁šuhurpiya	-7768
transaction	-7769
transported	-7770
transporter	-7771
▁..........	-7772
▁abirušakum	-7773
▁acceptable	-7774
▁apparently	-7775
▁appearance	-7776
▁appointing	-7777
▁arašihatal	-7778
▁arbitrator	-7779
▁aštahšušar	-7780
▁baniharsum	-7781
▁belongings	-7782
▁blelonging	-7783
▁collection	-7784
▁commission	-7785
▁committing	-7786
▁complaints	-7787
▁compliance	-7788
▁confirming	-7789
▁considered	-7790
▁depression	-7791
▁desposited	-7792
▁destroying	-7793
▁determined	-7794
▁disappoint	-7795
▁duplicates	-7796
▁encourrage	-7797
▁encumbered	-7798
▁exhaustive	-7799
▁exudations	-7800
▁falsehoods	-7801
▁financiers	-7802
▁grievances	-7803
▁haršunuman	-7804
▁hasutayali	-7805
▁headstrong	-7806
▁hunadaduam	-7807
▁imperative	-7808
▁impossible	-7809
▁includeing	-7810
▁inhabitant	-7811
▁initiative	-7812
▁inspection	-7813
▁intentions	-7814
▁intervened	-7815
▁kurkurānum	-7816
▁lamassatum	-7817
▁lamassitim	-7818
▁litigation	-7819
▁luhsaddiya	-7820
▁menuniānus	-7821
▁misconduct	-7822
▁objections	-7823
▁obligation	-7824
▁packsaddle	-7825
▁perfidious	-7826
▁persistent	-7827
▁practicing	-7828
▁preferably	-7829
▁pressuring	-7830
▁principals	-7831
▁production	-7832
▁profitably	-7833
▁quarrelled	-7834
▁reassuring	-7835
▁recognized	-7836
▁represesnt	-7837
▁reputation	-7838
▁resolution	-7839
▁sacrificed	-7840
▁seperately	-7841
▁shortfalls	-7842
▁sinahuttum	-7843
▁specialist	-7844
▁standstill	-7845
▁strengthen	-7846
▁substitute	-7847
▁subtracted	-7848
▁successive	-7849
▁suppliment	-7850
▁sustenance	-7851
▁takuštaean	-7852
▁tappašatta	-7853
▁thereafter	-7854
▁tuhtuhānum	-7855
▁unpleasant	-7856
▁upbringing	-7857
▁ušbugattum	-7858
▁uštahšušar	-7859
▁vindicates	-7860
▁withnesses	-7861
▁zizulayali	-7862
▁šahišnuman	-7863
▁šarnigaššu	-7864
▁šimašitiša	-7865
▁šuppinuman	-7866
▁ṣdocuments	-7867
▁[0.3333(?)]	-7868
▁accompanied	-7869
▁anonymously	-7870
▁approaching	-7871
▁appropriate	-7872
▁capitalists	-7873
▁compensated	-7874
▁complaining	-7875
▁confiscated	-7876
▁considering	-7877
▁contracting	-7878
▁convenience	-7879
▁corresponds	-7880
▁denunciated	-7881
▁destination	-7882
▁diminishing	-7883
▁disappeared	-7884
▁dispatching	-7885
▁effectuated	-7886
▁encouraging	-7887
▁established	-7888
▁expenditure	-7889
▁experienced	-7890
▁frightening	-7891
▁gentlemanly	-7892
▁independent	-7893
▁inheritance	-7894
▁installment	-7895
▁instalments	-7896
▁instuctions	-7897
▁interpretor	-7898
▁interrogate	-7899
▁inwahšušana	-7900
▁maintenance	-7901
▁maltreating	-7902
▁netherworld	-7903
▁partnership	-7904
▁petitioning	-7905
▁realisation	-7906
▁safekeeping	-7907
▁sahrudannum	-7908
▁siktihasuti	-7909
▁slaughtered	-7910
▁substantial	-7911
▁superseeded	-7912
▁translation	-7913
▁understands	-7914
▁šuppiluliya	-7915
▁collectively	-7916
▁confidential	-7917
▁consequently	-7918
▁consignments	-7919
▁establishing	-7920
▁extinguished	-7921
▁friendliness	-7922
▁guarantorthe	-7923
▁insufficient	-7924
▁interrogated	-7925
▁pomegranates	-7926
▁priestessand	-7927
▁satisfaction	-7928
▁shareholders	-7929
▁successively	-7930
representative	-7931
wardīentrusted	-7932
▁argumentation	-7933
▁reimbursement	-7934
▁saddleclothes	-7935
▁shekelswithin	-7936
▁silverqatatum	-7937
▁specification	-7938
▁understanding	-7939
▁usubuhamazaya	-7940
representatives	-7941
▁aforementioned	-7942
▁leatherworkers	-7943
▁representation	-7944
▁specifications	-7945
▁reprisentatives	-7946
(!	-7947
)>	-7948
)]	-7949
,?	-7950
.,	-7951
.-	-7952
.0	-7953
.3	-7954
.6	-7955
.9	-7956
.:	-7957
.;	-7958
.]	-7959
0,	-7960
0.	-7961
08	-7962
0?	-7963
1)	-7964
1-	-7965
1.	-7966
11	-7967
12	-7968
13	-7969
14	-7970
15	-7971
16	-7972
18	-7973
19	-7974
1⁄	-7975
2.	-7976
20	-7977
21	-7978
22	-7979
23	-7980
24	-7981
25	-7982
2?	-7983
2⁄	-7984
3.	-7985
30	-7986
31	-7987
34	-7988
35	-7989
36	-7990
39	-7991
4.	-7992
41	-7993
45	-7994
5.	-7995
52	-7996
55	-7997
56	-7998
57	-7999
26	-8000
28	-8001
32	-8002
37	-8003
42	-8004
46	-8005
48	-8006
5:	-8007
6,	-8008
6.	-8009
6:	-8010
6]	-8011
7!	-8012
7.	-8013
70	-8014
71	-8015
76	-8016
78	-8017
7:	-8018
8.	-8019
81	-8020
83	-8021
86	-8022
8?	-8023
9.	-8024
95	-8025
96	-8026
:6	-8027
:7	-8028
;[	-8029
<<	-8030
[-	-8031
[.	-8032
[0	-8033
[1	-8034
[3	-8035
[?	-8036
](	-8037
]0	-8038
ae	-8039
ai	-8040
au	-8041
ba	-8042
bb	-8043
bj	-8044
bk	-8045
bl	-8046
bm	-8047
bn	-8048
bo	-8049
br	-8050
bv	-8051
bā	-8052
bš	-8053
cc	-8054
cq	-8055
cr	-8056
dl	-8057
dn	-8058
dr	-8059
ds	-8060
dv	-8061
dy	-8062
dū	-8063
eb	-8064
ef	-8065
ei	-8066
eo	-8067
eu	-8068
fa	-8069
fi	-8070
fo	-8071
fr	-8072
fs	-8073
fy	-8074
gd	-8075
gl	-8076
gt	-8077
hd	-8078
hh	-8079
hm	-8080
hp	-8081
hr	-8082
hs	-8083
ht	-8084
hī	-8085
hš	-8086
io	-8087
iā	-8088
iṣ	-8089
iṭ	-8090
ja	-8091
je	-8092
jo	-8093
ju	-8094
kl	-8095
kn	-8096
ko	-8097
kt	-8098
kṣ	-8099
'(	-8100
-.	-8101
.!	-8102
.?	-8103
0-	-8104
1:	-8105
1;	-8106
29	-8107
43	-8108
44	-8109
49	-8110
53	-8111
5⁄	-8112
75	-8113
85	-8114
[4	-8115
[]	-8116
aj	-8117
bū	-8118
dg	-8119
eq	-8120
kr	-8121
lb	-8122
lc	-8123
lg	-8124
lk	-8125
lr	-8126
lt	-8127
lz	-8128
lš	-8129
lū	-8130
md	-8131
mh	-8132
mk	-8133
ml	-8134
mm	-8135
mn	-8136
mp	-8137
mq	-8138
mr	-8139
ms	-8140
mt	-8141
mā	-8142
mš	-8143
nc	-8144
ne	-8145
nf	-8146
ng	-8147
nh	-8148
nj	-8149
nk	-8150
nl	-8151
nm	-8152
nn	-8153
np	-8154
nq	-8155
ns	-8156
nv	-8157
nw	-8158
ny	-8159
nz	-8160
oa	-8161
oc	-8162
oe	-8163
og	-8164
oo	-8165
op	-8166
ov	-8167
ph	-8168
pm	-8169
ps	-8170
pu	-8171
py	-8172
pš	-8173
pū	-8174
qē	-8175
qī	-8176
qū	-8177
rc	-8178
rd	-8179
rg	-8180
rh	-8181
rk	-8182
rl	-8183
rm	-8184
rq	-8185
rr	-8186
rs	-8187
rt	-8188
rv	-8189
rw	-8190
rz	-8191
rā	-8192
rš	-8193
sc	-8194
sd	-8195
sf	-8196
si	-8197
sk	-8198
sm	-8199
(.	-8200
(?	-8201
.>	-8202
03	-8203
1,	-8204
3-	-8205
3]	-8206
47	-8207
54	-8208
65	-8209
7,	-8210
94	-8211
[2	-8212
bī	-8213
ej	-8214
hl	-8215
lh	-8216
lṭ	-8217
ox	-8218
qi	-8219
rb	-8220
rp	-8221
sb	-8222
sn	-8223
sr	-8224
sā	-8225
sš	-8226
tc	-8227
tf	-8228
tl	-8229
tm	-8230
tn	-8231
tq	-8232
ty	-8233
tā	-8234
tū	-8235
uc	-8236
uf	-8237
ug	-8238
ui	-8239
uk	-8240
uo	-8241
uw	-8242
uy	-8243
vo	-8244
vt	-8245
vy	-8246
wh	-8247
wo	-8248
wr	-8249
wā	-8250
xc	-8251
xe	-8252
xi	-8253
xp	-8254
xt	-8255
xu	-8256
yb	-8257
yi	-8258
ym	-8259
yo	-8260
yp	-8261
yr	-8262
ys	-8263
yt	-8264
yw	-8265
zy	-8266
ûl	-8267
āh	-8268
āy	-8269
ēd	-8270
ēr	-8271
īb	-8272
īd	-8273
īy	-8274
īš	-8275
šh	-8276
šm	-8277
šp	-8278
šr	-8279
šs	-8280
št	-8281
šû	-8282
šā	-8283
šē	-8284
šī	-8285
šū	-8286
ūa	-8287
ūb	-8288
ūd	-8289
ūl	-8290
ūn	-8291
ūp	-8292
ūt	-8293
ūš	-8294
ṣa	-8295
ṣe	-8296
ṣi	-8297
ṣì	-8298
ṣā	-8299
(1	-8300
0+	-8301
07	-8302
1]	-8303
3,	-8304
3?	-8305
5(	-8306
58	-8307
61	-8308
68	-8309
72	-8310
92	-8311
:8	-8312
]5	-8313
gā	-8314
hn	-8315
iu	-8316
kā	-8317
lē	-8318
mē	-8319
rf	-8320
sq	-8321
tē	-8322
zk	-8323
zz	-8324
zā	-8325
zī	-8326
āq	-8327
īt	-8328
šd	-8329
šk	-8330
ṣr	-8331
ṣī	-8332
ṣū	-8333
ṭa	-8334
ṭn	-8335
ṭu	-8336
ṭā	-8337
⁄2	-8338
▁ā	-8339
▁ē	-8340
▁ī	-8341
▁ʾ	-8342
▁ṭ	-8343
"..	-8344
(..	-8345
)..	-8346
..,	-8347
.5!	-8348
1.1	-8349
1.5	-8350
1.8	-8351
166	-8352
1?)	-8353
2.8	-8354
3.8	-8355
33(	-8356
33.	-8357
33]	-8358
5.5	-8359
7.5	-8360
7.8	-8361
abs	-8362
abā	-8363
adā	-8364
adū	-8365
agu	-8366
aha	-8367
ahā	-8368
ait	-8369
akt	-8370
akš	-8371
alm	-8372
alt	-8373
alv	-8374
alṭ	-8375
amk	-8376
amt	-8377
arw	-8378
asā	-8379
atc	-8380
ats	-8381
atā	-8382
aus	-8383
awn	-8384
aym	-8385
bes	-8386
bid	-8387
bir	-8388
biš	-8389
bto	-8390
bus	-8391
cas	-8392
cce	-8393
cel	-8394
cer	-8395
che	-8396
cis	-8397
cti	-8398
ctl	-8399
"(	-8400
"1	-8401
"2	-8402
"7	-8403
"[	-8404
'1	-8405
'4	-8406
("	-8407
(2	-8408
02	-8409
04	-8410
06	-8411
0:	-8412
0[	-8413
1?	-8414
2(	-8415
3!	-8416
3+	-8417
4(	-8418
4?	-8419
4[	-8420
5!	-8421
5+	-8422
5,	-8423
5?	-8424
5]	-8425
6!	-8426
73	-8427
8,	-8428
90	-8429
9[	-8430
dh	-8431
uṭ	-8432
yl	-8433
2.5	-8434
amn	-8435
anā	-8436
cts	-8437
cut	-8438
dal	-8439
ddr	-8440
den	-8441
dha	-8442
din	-8443
dul	-8444
dāt	-8445
ece	-8446
ede	-8447
eek	-8448
eha	-8449
ehe	-8450
elr	-8451
elā	-8452
emp	-8453
emū	-8454
ena	-8455
end	-8456
enl	-8457
enn	-8458
ens	-8459
enu	-8460
eon	-8461
eor	-8462
epp	-8463
era	-8464
erc	-8465
erh	-8466
eri	-8467
erm	-8468
ese	-8469
esn	-8470
eso	-8471
eth	-8472
eut	-8473
exp	-8474
fal	-8475
fed	-8476
fre	-8477
ggl	-8478
gis	-8479
gon	-8480
gān	-8481
hal	-8482
hau	-8483
het	-8484
hey	-8485
hit	-8486
hiy	-8487
hoo	-8488
huš	-8489
ibš	-8490
idg	-8491
ifi	-8492
igg	-8493
iha	-8494
ilm	-8495
ilp	-8496
ils	-8497
ilū	-8498
imn	-8499
'"	-8500
3(	-8501
59	-8502
62	-8503
63	-8504
64	-8505
93	-8506
98	-8507
;0	-8508
["	-8509
[(	-8510
[5	-8511
]2	-8512
]6	-8513
bd	-8514
df	-8515
ez	-8516
hb	-8517
kš	-8518
lm	-8519
lw	-8520
nr	-8521
pb	-8522
tk	-8523
xa	-8524
xh	-8525
xw	-8526
yn	-8527
zt	-8528
āṭ	-8529
ṣd	-8530
alu	-8531
alā	-8532
arc	-8533
bts	-8534
enc	-8535
erf	-8536
gra	-8537
hec	-8538
iml	-8539
imr	-8540
ims	-8541
inf	-8542
inh	-8543
inw	-8544
ipe	-8545
irš	-8546
isd	-8547
isn	-8548
itā	-8549
iān	-8550
išm	-8551
išr	-8552
išū	-8553
kag	-8554
kee	-8555
kes	-8556
kil	-8557
kri	-8558
lak	-8559
las	-8560
lay	-8561
lds	-8562
lev	-8563
lha	-8564
lif	-8565
lor	-8566
lud	-8567
mil	-8568
mug	-8569
mur	-8570
nar	-8571
nat	-8572
nay	-8573
nda	-8574
ndf	-8575
ndo	-8576
nen	-8577
nex	-8578
nla	-8579
nou	-8580
nts	-8581
nun	-8582
oad	-8583
oar	-8584
oat	-8585
oav	-8586
olv	-8587
ona	-8588
onc	-8589
ond	-8590
onf	-8591
onk	-8592
onn	-8593
ool	-8594
oom	-8595
ora	-8596
orb	-8597
orc	-8598
org	-8599
+0	-8600
aṭ	-8601
nē	-8602
qā	-8603
vu	-8604
wf	-8605
wt	-8606
yy	-8607
zû	-8608
zū	-8609
ās	-8610
ēt	-8611
īe	-8612
šb	-8613
šn	-8614
šq	-8615
ūm	-8616
acc	-8617
alc	-8618
cit	-8619
env	-8620
erg	-8621
fel	-8622
ghe	-8623
hah	-8624
haw	-8625
hea	-8626
hee	-8627
hei	-8628
hek	-8629
hel	-8630
hem	-8631
kal	-8632
kru	-8633
mad	-8634
mha	-8635
nhe	-8636
oon	-8637
ori	-8638
orl	-8639
orr	-8640
orw	-8641
ote	-8642
oug	-8643
pal	-8644
pas	-8645
pec	-8646
pou	-8647
poy	-8648
ppl	-8649
ppo	-8650
ppr	-8651
pse	-8652
qab	-8653
qad	-8654
qid	-8655
que	-8656
rah	-8657
rai	-8658
rak	-8659
rar	-8660
rea	-8661
rec	-8662
reg	-8663
reh	-8664
rei	-8665
rej	-8666
rel	-8667
req	-8668
rev	-8669
rhe	-8670
rig	-8671
roc	-8672
rop	-8673
rot	-8674
rul	-8675
rān	-8676
sib	-8677
sig	-8678
sil	-8679
sol	-8680
sta	-8681
sto	-8682
tat	-8683
tay	-8684
tes	-8685
tex	-8686
tha	-8687
thi	-8688
ths	-8689
thy	-8690
tit	-8691
tiv	-8692
tra	-8693
tro	-8694
tur	-8695
tān	-8696
uat	-8697
ubl	-8698
ubā	-8699
bin	-8700
cin	-8701
ddi	-8702
des	-8703
dnā	-8704
eel	-8705
ein	-8706
erd	-8707
erl	-8708
esu	-8709
fus	-8710
gal	-8711
ier	-8712
inc	-8713
ink	-8714
inl	-8715
inq	-8716
inv	-8717
inā	-8718
ium	-8719
išš	-8720
jus	-8721
lin	-8722
lul	-8723
mus	-8724
ner	-8725
nin	-8726
oer	-8727
oin	-8728
ppī	-8729
sin	-8730
suf	-8731
ubī	-8732
ude	-8733
udā	-8734
uen	-8735
uff	-8736
uhs	-8737
uin	-8738
uit	-8739
ukū	-8740
uld	-8741
ule	-8742
ulm	-8743
ult	-8744
uml	-8745
umn	-8746
umo	-8747
umā	-8748
uns	-8749
ura	-8750
urb	-8751
urc	-8752
urg	-8753
uri	-8754
urk	-8755
urm	-8756
uru	-8757
usp	-8758
utt	-8759
utā	-8760
uzū	-8761
var	-8762
vil	-8763
vin	-8764
vit	-8765
vot	-8766
vou	-8767
wel	-8768
wer	-8769
wha	-8770
win	-8771
xes	-8772
xha	-8773
xin	-8774
yan	-8775
yer	-8776
yin	-8777
yor	-8778
zab	-8779
zad	-8780
zag	-8781
zak	-8782
zal	-8783
zan	-8784
zar	-8785
zer	-8786
zig	-8787
zim	-8788
zin	-8789
zuk	-8790
zun	-8791
zut	-8792
zya	-8793
ēdā	-8794
īen	-8795
īšu	-8796
šal	-8797
šhi	-8798
šid	-8799
aur	-8800
dil	-8801
doc	-8802
dou	-8803
duc	-8804
dur	-8805
edg	-8806
eer	-8807
erp	-8808
erq	-8809
err	-8810
erw	-8811
fil	-8812
fur	-8813
gum	-8814
gur	-8815
hil	-8816
hre	-8817
ilk	-8818
ilu	-8819
ilv	-8820
ilā	-8821
ilš	-8822
išt	-8823
ker	-8824
kān	-8825
lag	-8826
lal	-8827
ler	-8828
lur	-8829
mel	-8830
nil	-8831
ouc	-8832
por	-8833
rer	-8834
rif	-8835
sad	-8836
sal	-8837
sem	-8838
ser	-8839
stu	-8840
uam	-8841
uil	-8842
urd	-8843
urh	-8844
urp	-8845
urs	-8846
urt	-8847
urz	-8848
urā	-8849
urš	-8850
utr	-8851
wei	-8852
wil	-8853
xen	-8854
xer	-8855
šil	-8856
šit	-8857
šma	-8858
šna	-8859
šša	-8860
ūnu	-8861
ṣal	-8862
ṣil	-8863
ṭar	-8864
▁(!	-8865
▁2(	-8866
▁4[	-8867
▁[4	-8868
▁[5	-8869
▁ai	-8870
▁av	-8871
▁aw	-8872
▁ci	-8873
▁cr	-8874
▁dy	-8875
▁ei	-8876
▁eq	-8877
▁et	-8878
▁fa	-8879
▁fi	-8880
▁fr	-8881
▁ho	-8882
▁iṣ	-8883
▁iṭ	-8884
▁ke	-8885
▁kn	-8886
▁ly	-8887
▁nā	-8888
▁oa	-8889
▁oi	-8890
▁op	-8891
▁ot	-8892
▁ou	-8893
▁ov	-8894
▁pi	-8895
▁sk	-8896
▁sm	-8897
▁sn	-8898
▁sq	-8899
-..	-8900
.."	-8901
?..	-8902
[..	-8903
akk	-8904
bou	-8905
elk	-8906
fam	-8907
gen	-8908
hon	-8909
jar	-8910
kon	-8911
lec	-8912
lon	-8913
mis	-8914
nde	-8915
ndi	-8916
ndl	-8917
ndr	-8918
ndu	-8919
ndā	-8920
non	-8921
oni	-8922
onl	-8923
ono	-8924
onr	-8925
ont	-8926
onv	-8927
onz	-8928
rac	-8929
ros	-8930
rur	-8931
tah	-8932
ton	-8933
urf	-8934
vag	-8935
wad	-8936
yon	-8937
▁0.	-8938
▁ba	-8939
▁bē	-8940
▁lu	-8941
▁ti	-8942
▁ty	-8943
▁ug	-8944
▁uq	-8945
▁wt	-8946
▁ya	-8947
▁yi	-8948
▁yo	-8949
▁šā	-8950
)...	-8951
...!	-8952
...?	-8953
0.66	-8954
1.66	-8955
5.66	-8956
6666	-8957
?...	-8958
](?)	-8959
abaš	-8960
abiā	-8961
abiš	-8962
abān	-8963
acri	-8964
actu	-8965
adan	-8966
adat	-8967
addu	-8968
aded	-8969
ader	-8970
adit	-8971
adst	-8972
adum	-8973
aean	-8974
agan	-8975
ahri	-8976
ahut	-8977
ahān	-8978
aise	-8979
akiš	-8980
alac	-8981
alak	-8982
alar	-8983
aled	-8984
ales	-8985
alha	-8986
alhi	-8987
alin	-8988
alit	-8989
alku	-8990
allā	-8991
alān	-8992
amar	-8993
amaš	-8994
anan	-8995
anat	-8996
anes	-8997
annu	-8998
anot	-8999
abe	-9000
cen	-9001
cor	-9002
dar	-9003
edd	-9004
edā	-9005
enj	-9006
eno	-9007
eny	-9008
esc	-9009
esi	-9010
esp	-9011
fes	-9012
iay	-9013
kid	-9014
lav	-9015
len	-9016
lic	-9017
nal	-9018
nes	-9019
oes	-9020
rid	-9021
tre	-9022
uay	-9023
uhr	-9024
wes	-9025
zen	-9026
zes	-9027
ṭnā	-9028
▁bū	-9029
▁ey	-9030
▁rē	-9031
(...	-9032
adān	-9033
alpa	-9034
anik	-9035
ansl	-9036
ansm	-9037
ante	-9038
arad	-9039
arae	-9040
arat	-9041
ardi	-9042
ares	-9043
arit	-9044
arle	-9045
arra	-9046
arri	-9047
arwa	-9048
asal	-9049
asas	-9050
ason	-9051
assā	-9052
atil	-9053
atān	-9054
avor	-9055
ayai	-9056
ayal	-9057
ayed	-9058
ayer	-9059
aziz	-9060
ašal	-9061
ašib	-9062
aštī	-9063
bate	-9064
btof	-9065
btor	-9066
ccur	-9067
ceiv	-9068
chas	-9069
ckel	-9070
dann	-9071
dded	-9072
dent	-9073
dida	-9074
ding	-9075
duat	-9076
edak	-9077
eher	-9078
elab	-9079
elds	-9080
eler	-9081
elit	-9082
ells	-9083
emal	-9084
emuq	-9085
enat	-9086
enes	-9087
enin	-9088
enou	-9089
enti	-9090
enun	-9091
erab	-9092
eren	-9093
eres	-9094
erin	-9095
eriv	-9096
erly	-9097
erns	-9098
eruz	-9099
ale	-9100
bad	-9101
bul	-9102
car	-9103
eda	-9104
edl	-9105
eds	-9106
edu	-9107
eke	-9108
elv	-9109
enq	-9110
fen	-9111
hab	-9112
haf	-9113
hai	-9114
hap	-9115
haq	-9116
hav	-9117
hha	-9118
ked	-9119
nha	-9120
niz	-9121
ody	-9122
ped	-9123
pul	-9124
roa	-9125
seq	-9126
tor	-9127
uts	-9128
xed	-9129
yed	-9130
zed	-9131
šat	-9132
šed	-9133
šha	-9134
▁63	-9135
▁cu	-9136
akri	-9137
alan	-9138
asha	-9139
bver	-9140
edin	-9141
edur	-9142
ervi	-9143
esen	-9144
eser	-9145
eses	-9146
esig	-9147
esol	-9148
essa	-9149
esti	-9150
eter	-9151
etit	-9152
exce	-9153
ffed	-9154
gard	-9155
gued	-9156
hadd	-9157
haff	-9158
hall	-9159
hand	-9160
happ	-9161
hars	-9162
hate	-9163
hats	-9164
haus	-9165
hear	-9166
heed	-9167
heep	-9168
heer	-9169
herm	-9170
hese	-9171
hiay	-9172
hiya	-9173
iban	-9174
ibši	-9175
icit	-9176
iest	-9177
ikal	-9178
ikar	-9179
ikaš	-9180
ikik	-9181
ilat	-9182
ilen	-9183
iler	-9184
ilin	-9185
ilis	-9186
ilit	-9187
ille	-9188
ilān	-9189
ilīš	-9190
imaš	-9191
imed	-9192
imes	-9193
imān	-9194
inar	-9195
inas	-9196
inen	-9197
iner	-9198
inha	-9199
abb	-9200
adl	-9201
ahr	-9202
cou	-9203
dit	-9204
eit	-9205
hou	-9206
iou	-9207
itk	-9208
itl	-9209
itn	-9210
itr	-9211
kit	-9212
lis	-9213
lou	-9214
low	-9215
mou	-9216
nit	-9217
nor	-9218
oor	-9219
oot	-9220
ork	-9221
orm	-9222
oro	-9223
oul	-9224
pel	-9225
ror	-9226
rou	-9227
siv	-9228
sor	-9229
uey	-9230
usb	-9231
vor	-9232
yya	-9233
▁pa	-9234
▁ye	-9235
2.5]	-9236
ache	-9237
alen	-9238
arhi	-9239
curt	-9240
edit	-9241
eled	-9242
enar	-9243
enas	-9244
esor	-9245
essi	-9246
glet	-9247
hres	-9248
ikan	-9249
ingo	-9250
inhe	-9251
inin	-9252
inis	-9253
ināt	-9254
ipit	-9255
irds	-9256
irep	-9257
isab	-9258
isav	-9259
iscl	-9260
ishe	-9261
isāb	-9262
itab	-9263
ital	-9264
itay	-9265
itha	-9266
ithe	-9267
itin	-9268
itor	-9269
itre	-9270
itur	-9271
izen	-9272
izān	-9273
išha	-9274
kall	-9275
kets	-9276
kkul	-9277
kkut	-9278
kuka	-9279
kūpp	-9280
ladd	-9281
lama	-9282
lame	-9283
lann	-9284
leas	-9285
lecl	-9286
lect	-9287
lend	-9288
lent	-9289
lers	-9290
less	-9291
lige	-9292
litk	-9293
live	-9294
mahi	-9295
malk	-9296
mble	-9297
nana	-9298
nann	-9299
ald	-9300
alg	-9301
alh	-9302
alp	-9303
alz	-9304
alī	-9305
amq	-9306
bar	-9307
bat	-9308
del	-9309
dre	-9310
eac	-9311
ele	-9312
eli	-9313
elu	-9314
gre	-9315
gro	-9316
ido	-9317
iel	-9318
iol	-9319
lac	-9320
lel	-9321
lre	-9322
ntr	-9323
reo	-9324
reu	-9325
rre	-9326
tel	-9327
tic	-9328
tif	-9329
uel	-9330
umš	-9331
ušš	-9332
vel	-9333
zah	-9334
ēre	-9335
ššū	-9336
ṣua	-9337
▁3.	-9338
▁6:	-9339
"...	-9340
...5	-9341
...9	-9342
6.66	-9343
alou	-9344
anin	-9345
anāt	-9346
aray	-9347
artn	-9348
cord	-9349
elal	-9350
elin	-9351
elon	-9352
fits	-9353
ghed	-9354
hare	-9355
hašš	-9356
ilal	-9357
imiš	-9358
init	-9359
ndal	-9360
ndar	-9361
nden	-9362
ndin	-9363
ndit	-9364
ndle	-9365
ndon	-9366
ndum	-9367
nger	-9368
nina	-9369
nter	-9370
ntil	-9371
nuba	-9372
nuwa	-9373
oads	-9374
olic	-9375
omer	-9376
onal	-9377
onds	-9378
onen	-9379
ongs	-9380
onin	-9381
onst	-9382
orab	-9383
orer	-9384
ores	-9385
orin	-9386
orit	-9387
orld	-9388
orow	-9389
orre	-9390
orse	-9391
orth	-9392
orts	-9393
oted	-9394
ourn	-9395
ourt	-9396
owis	-9397
peri	-9398
ping	-9399
66]	-9400
arb	-9401
arf	-9402
arg	-9403
arh	-9404
arl	-9405
arm	-9406
arv	-9407
arz	-9408
arš	-9409
ble	-9410
cep	-9411
cum	-9412
imi	-9413
kūt	-9414
lar	-9415
pir	-9416
pum	-9417
ray	-9418
sab	-9419
uar	-9420
umi	-9421
umm	-9422
umq	-9423
umu	-9424
viv	-9425
vul	-9426
wsu	-9427
yar	-9428
zat	-9429
zum	-9430
ṭum	-9431
▁2⁄	-9432
▁nū	-9433
amed	-9434
ared	-9435
aren	-9436
arer	-9437
arin	-9438
arli	-9439
arre	-9440
elum	-9441
enan	-9442
ical	-9443
iden	-9444
imar	-9445
imel	-9446
plet	-9447
pons	-9448
pony	-9449
ppin	-9450
ppor	-9451
qual	-9452
quir	-9453
rant	-9454
read	-9455
reak	-9456
real	-9457
rear	-9458
reel	-9459
reen	-9460
rele	-9461
reme	-9462
rend	-9463
rent	-9464
resh	-9465
resp	-9466
reve	-9467
rict	-9468
ripp	-9469
ritu	-9470
roac	-9471
roce	-9472
roof	-9473
ropp	-9474
rove	-9475
rues	-9476
rust	-9477
seed	-9478
seho	-9479
sess	-9480
sher	-9481
sion	-9482
ssed	-9483
stal	-9484
stat	-9485
sted	-9486
ster	-9487
stit	-9488
swer	-9489
tack	-9490
tapp	-9491
tere	-9492
terv	-9493
terw	-9494
thou	-9495
thre	-9496
ties	-9497
till	-9498
tort	-9499
4.5	-9500
ahn	-9501
bro	-9502
cro	-9503
dle	-9504
eat	-9505
eve	-9506
fro	-9507
gac	-9508
gle	-9509
hro	-9510
iah	-9511
irc	-9512
kab	-9513
kat	-9514
kle	-9515
lea	-9516
lef	-9517
lle	-9518
lot	-9519
lve	-9520
mas	-9521
nus	-9522
off	-9523
oks	-9524
ole	-9525
rob	-9526
rod	-9527
rof	-9528
rok	-9529
roo	-9530
rov	-9531
roy	-9532
tle	-9533
īya	-9534
ūqī	-9535
ahul	-9536
arke	-9537
arro	-9538
arve	-9539
bina	-9540
dina	-9541
elay	-9542
enab	-9543
erro	-9544
ilul	-9545
inah	-9546
inay	-9547
irew	-9548
kina	-9549
lear	-9550
lina	-9551
lony	-9552
ners	-9553
onro	-9554
onve	-9555
orro	-9556
sadd	-9557
tina	-9558
turn	-9559
uala	-9560
ubar	-9561
ubat	-9562
ubuz	-9563
udic	-9564
udik	-9565
udun	-9566
udur	-9567
uest	-9568
ught	-9569
uili	-9570
ular	-9571
ules	-9572
ulid	-9573
ulāl	-9574
umel	-9575
umen	-9576
umit	-9577
umor	-9578
umul	-9579
unat	-9580
uqar	-9581
urab	-9582
urag	-9583
ural	-9584
uram	-9585
urar	-9586
urat	-9587
ured	-9588
urel	-9589
urha	-9590
urhe	-9591
urin	-9592
urit	-9593
urpl	-9594
urse	-9595
urst	-9596
urān	-9597
usad	-9598
usat	-9599
333	-9600
anc	-9601
ang	-9602
anl	-9603
ano	-9604
anq	-9605
anw	-9606
bol	-9607
chi	-9608
cid	-9609
gat	-9610
hia	-9611
hic	-9612
hid	-9613
hig	-9614
kan	-9615
lan	-9616
oan	-9617
pan	-9618
pat	-9619
rma	-9620
san	-9621
shi	-9622
tan	-9623
uan	-9624
upp	-9625
utw	-9626
whi	-9627
zam	-9628
zid	-9629
šut	-9630
▁ge	-9631
▁gi	-9632
.166	-9633
aint	-9634
amel	-9635
anal	-9636
aned	-9637
apit	-9638
aran	-9639
cing	-9640
curs	-9641
ddit	-9642
efit	-9643
elan	-9644
eran	-9645
hian	-9646
hire	-9647
itan	-9648
laya	-9649
lean	-9650
lets	-9651
libb	-9652
oing	-9653
post	-9654
rean	-9655
seiz	-9656
uard	-9657
uran	-9658
uses	-9659
usil	-9660
usin	-9661
usto	-9662
ustw	-9663
usum	-9664
utal	-9665
utat	-9666
utor	-9667
utst	-9668
utān	-9669
uzer	-9670
uzuz	-9671
uzān	-9672
veal	-9673
vent	-9674
vera	-9675
verd	-9676
verl	-9677
vern	-9678
verq	-9679
vers	-9680
vill	-9681
vity	-9682
vour	-9683
wali	-9684
ween	-9685
wing	-9686
xing	-9687
yala	-9688
yart	-9689
zina	-9690
zing	-9691
āhum	-9692
ānah	-9693
ēlat	-9694
ēlāt	-9695
šams	-9696
šhat	-9697
šina	-9698
šuah	-9699
33?	-9700
ami	-9701
amp	-9702
amu	-9703
amā	-9704
amš	-9705
atn	-9706
ays	-9707
bay	-9708
cam	-9709
eam	-9710
gay	-9711
gth	-9712
iam	-9713
kam	-9714
kay	-9715
nce	-9716
qay	-9717
sam	-9718
tam	-9719
zay	-9720
ūay	-9721
▁eb	-9722
alay	-9723
amay	-9724
amen	-9725
ames	-9726
amil	-9727
amum	-9728
anam	-9729
anay	-9730
aram	-9731
arav	-9732
asam	-9733
ayor	-9734
ekel	-9735
elam	-9736
enam	-9737
enay	-9738
heat	-9739
hipp	-9740
hter	-9741
ilay	-9742
mitt	-9743
olve	-9744
umay	-9745
uray	-9746
urmo	-9747
utay	-9748
ziya	-9749
šuwa	-9750
ššar	-9751
ššum	-9752
ṣiya	-9753
▁106	-9754
▁10[	-9755
▁128	-9756
▁15.	-9757
▁16.	-9758
▁2.1	-9759
▁4.8	-9760
▁5.8	-9761
▁500	-9762
▁6.8	-9763
▁[9]	-9764
▁abs	-9765
▁ada	-9766
▁adu	-9767
▁ahe	-9768
▁ahm	-9769
▁ala	-9770
▁als	-9771
▁alw	-9772
▁ano	-9773
▁ara	-9774
▁asd	-9775
▁asš	-9776
▁ašš	-9777
▁bac	-9778
▁ban	-9779
▁beh	-9780
▁bek	-9781
▁ben	-9782
▁ber	-9783
▁bes	-9784
▁bin	-9785
▁bit	-9786
▁bou	-9787
▁bri	-9788
▁cam	-9789
▁cas	-9790
▁ced	-9791
▁cen	-9792
▁cer	-9793
▁chi	-9794
▁cit	-9795
▁cof	-9796
▁cro	-9797
▁cum	-9798
▁cur	-9799
6.8	-9800
abr	-9801
atm	-9802
ato	-9803
atr	-9804
bab	-9805
cat	-9806
cef	-9807
dat	-9808
iab	-9809
iat	-9810
lat	-9811
lān	-9812
nab	-9813
opp	-9814
pab	-9815
sat	-9816
tch	-9817
uzt	-9818
ušm	-9819
wat	-9820
ālī	-9821
šab	-9822
▁ši	-9823
▁ṣi	-9824
abal	-9825
abar	-9826
abay	-9827
abou	-9828
adly	-9829
alab	-9830
alat	-9831
alaš	-9832
arab	-9833
atar	-9834
atat	-9835
atay	-9836
atel	-9837
athe	-9838
ator	-9839
ayat	-9840
eent	-9841
else	-9842
entl	-9843
erat	-9844
herw	-9845
hown	-9846
ilab	-9847
isea	-9848
itat	-9849
leat	-9850
onat	-9851
pent	-9852
roat	-9853
uent	-9854
ulay	-9855
yant	-9856
īent	-9857
▁art	-9858
▁bat	-9859
▁clo	-9860
▁cus	-9861
▁dat	-9862
▁def	-9863
▁din	-9864
▁dou	-9865
▁dre	-9866
▁dri	-9867
▁dul	-9868
▁dut	-9869
▁eac	-9870
▁elu	-9871
▁eme	-9872
▁ena	-9873
▁eni	-9874
▁enj	-9875
▁enl	-9876
▁fac	-9877
▁fal	-9878
▁fat	-9879
▁fel	-9880
▁fes	-9881
▁fil	-9882
▁fin	-9883
▁fit	-9884
▁fix	-9885
▁fle	-9886
▁foc	-9887
▁fou	-9888
▁fro	-9889
▁fun	-9890
▁fur	-9891
▁gar	-9892
▁gat	-9893
▁gen	-9894
▁gob	-9895
▁gon	-9896
▁gro	-9897
▁hab	-9898
▁hah	-9899
cog	-9900
dus	-9901
ius	-9902
lus	-9903
mid	-9904
ods	-9905
pid	-9906
ppa	-9907
rus	-9908
sid	-9909
ssu	-9910
tus	-9911
udg	-9912
uhp	-9913
uid	-9914
usa	-9915
usi	-9916
usk	-9917
usm	-9918
uss	-9919
usā	-9920
vid	-9921
zān	-9922
šuw	-9923
▁na	-9924
▁nu	-9925
abat	-9926
alis	-9927
araš	-9928
athb	-9929
ašan	-9930
ašit	-9931
esid	-9932
heck	-9933
idat	-9934
inus	-9935
itte	-9936
išar	-9937
jour	-9938
just	-9939
lett	-9940
reho	-9941
rian	-9942
romi	-9943
romt	-9944
selv	-9945
tart	-9946
usan	-9947
usay	-9948
user	-9949
usus	-9950
uzut	-9951
▁alt	-9952
▁bet	-9953
▁coa	-9954
▁coo	-9955
▁cos	-9956
▁dus	-9957
▁eas	-9958
▁hap	-9959
▁haq	-9960
▁hau	-9961
▁hav	-9962
▁haz	-9963
▁haš	-9964
▁hea	-9965
▁hei	-9966
▁hel	-9967
▁hes	-9968
▁hig	-9969
▁hir	-9970
▁hiš	-9971
▁hor	-9972
▁huz	-9973
▁ibk	-9974
▁ibn	-9975
▁ikr	-9976
▁imd	-9977
▁imm	-9978
▁ina	-9979
▁inc	-9980
▁inf	-9981
▁ing	-9982
▁ini	-9983
▁inq	-9984
▁int	-9985
▁ipp	-9986
▁iss	-9987
▁izz	-9988
▁išd	-9989
▁išh	-9990
▁išp	-9991
▁kee	-9992
▁kit	-9993
▁kup	-9994
▁lar	-9995
▁las	-9996
▁lef	-9997
▁lif	-9998
▁lip	-9999
6.5	-10000
833	-10001
aim	-10002
ašt	-10003
cei	-10004
exa	-10005
exi	-10006
exu	-10007
hot	-10008
iec	-10009
imb	-10010
imp	-10011
imu	-10012
imā	-10013
isk	-10014
ott	-10015
suc	-10016
uce	-10017
uot	-10018
xce	-10019
▁4(	-10020
ands	-10021
arim	-10022
ceit	-10023
cour	-10024
eeps	-10025
exer	-10026
exha	-10027
hatt	-10028
herh	-10029
imat	-10030
imil	-10031
imin	-10032
imit	-10033
imon	-10034
inim	-10035
iour	-10036
kill	-10037
lder	-10038
lete	-10039
leti	-10040
lour	-10041
mann	-10042
nged	-10043
oday	-10044
othe	-10045
oura	-10046
ourr	-10047
ours	-10048
ppar	-10049
ppen	-10050
rell	-10051
uzur	-10052
vage	-10053
▁150	-10054
▁asu	-10055
▁asā	-10056
▁ene	-10057
▁enq	-10058
▁fib	-10059
▁itū	-10060
▁liv	-10061
▁loo	-10062
▁lum	-10063
▁mam	-10064
▁mea	-10065
▁med	-10066
▁mee	-10067
▁mel	-10068
▁mem	-10069
▁mes	-10070
▁mez	-10071
▁mil	-10072
▁mir	-10073
▁mor	-10074
▁mot	-10075
▁mou	-10076
▁mus	-10077
▁mys	-10078
▁nat	-10079
▁naz	-10080
▁new	-10081
▁nex	-10082
▁nid	-10083
▁nin	-10084
▁oat	-10085
▁oft	-10086
▁ous	-10087
▁pab	-10088
▁par	-10089
▁pes	-10090
▁pil	-10091
▁pin	-10092
▁pla	-10093
▁por	-10094
▁qaṭ	-10095
▁rab	-10096
▁rea	-10097
▁reb	-10098
▁rei	-10099
adi	-10100
cie	-10101
dad	-10102
dut	-10103
isr	-10104
išā	-10105
kad	-10106
kuw	-10107
lad	-10108
nad	-10109
nse	-10110
nut	-10111
sea	-10112
seh	-10113
sei	-10114
sew	-10115
tad	-10116
ānā	-10117
āṣī	-10118
šme	-10119
ūsu	-10120
▁2.	-10121
▁7:	-10122
▁ki	-10123
aday	-10124
alad	-10125
alik	-10126
amni	-10127
erse	-10128
hase	-10129
illa	-10130
illu	-10131
ilya	-10132
lden	-10133
lead	-10134
loth	-10135
main	-10136
memb	-10137
mine	-10138
reas	-10139
rong	-10140
stil	-10141
urad	-10142
zida	-10143
šill	-10144
ūaya	-10145
▁doc	-10146
▁gad	-10147
▁gif	-10148
▁isi	-10149
▁ist	-10150
▁isu	-10151
▁kin	-10152
▁kum	-10153
▁lal	-10154
▁len	-10155
▁les	-10156
▁lil	-10157
▁lon	-10158
▁lor	-10159
▁pad	-10160
▁rej	-10161
▁reo	-10162
▁req	-10163
▁roy	-10164
▁sec	-10165
▁sei	-10166
▁sel	-10167
▁sen	-10168
▁sep	-10169
▁ses	-10170
▁sev	-10171
▁sig	-10172
▁sof	-10173
▁sol	-10174
▁sor	-10175
▁sou	-10176
▁sta	-10177
▁stu	-10178
▁suh	-10179
▁tah	-10180
▁taw	-10181
▁tel	-10182
▁tes	-10183
▁tha	-10184
▁thi	-10185
▁tib	-10186
▁tid	-10187
▁tod	-10188
▁tog	-10189
▁tol	-10190
▁tom	-10191
▁tor	-10192
▁tot	-10193
▁tra	-10194
▁tul	-10195
▁tuw	-10196
▁und	-10197
▁uph	-10198
▁urg	-10199
acr	-10200
ahh	-10201
aht	-10202
ahu	-10203
ahš	-10204
asi	-10205
bas	-10206
ipp	-10207
išû	-10208
kiš	-10209
oke	-10210
ppi	-10211
ppu	-10212
ppū	-10213
riš	-10214
tae	-10215
uah	-10216
uir	-10217
wah	-10218
šas	-10219
šiš	-10220
ūpp	-10221
▁(?	-10222
abah	-10223
abas	-10224
alah	-10225
alas	-10226
ališ	-10227
aniš	-10228
arah	-10229
ariš	-10230
arāk	-10231
asan	-10232
asay	-10233
ashe	-10234
ašha	-10235
edic	-10236
ediš	-10237
eriš	-10238
este	-10239
estm	-10240
estr	-10241
ests	-10242
ilir	-10243
iliš	-10244
ilīm	-10245
itah	-10246
izam	-10247
lish	-10248
ppib	-10249
ppon	-10250
ppro	-10251
▁anc	-10252
▁ans	-10253
▁anī	-10254
▁arz	-10255
▁beb	-10256
▁bef	-10257
▁beg	-10258
▁bew	-10259
▁ern	-10260
▁fas	-10261
▁ide	-10262
▁miš	-10263
▁upp	-10264
▁usm	-10265
▁ušt	-10266
▁wah	-10267
▁wan	-10268
▁wea	-10269
▁wee	-10270
▁wef	-10271
▁wei	-10272
▁wel	-10273
▁wen	-10274
▁wer	-10275
▁wha	-10276
▁whi	-10277
▁wid	-10278
▁wif	-10279
▁wil	-10280
▁win	-10281
▁woo	-10282
▁wou	-10283
▁wro	-10284
▁yar	-10285
▁yay	-10286
▁yel	-10287
▁zag	-10288
▁zaz	-10289
▁zub	-10290
▁šaš	-10291
▁šil	-10292
▁šud	-10293
▁šug	-10294
▁šuh	-10295
▁šun	-10296
▁šup	-10297
▁šuz	-10298
.....	-10299
.5(	-10300
.5,	-10301
.5?	-10302
9.5	-10303
aut	-10304
bān	-10305
cke	-10306
hān	-10307
ike	-10308
kut	-10309
mān	-10310
nād	-10311
ope	-10312
qud	-10313
qān	-10314
sut	-10315
sān	-10316
uis	-10317
utf	-10318
uth	-10319
utk	-10320
utq	-10321
zul	-10322
ūqi	-10323
ṣān	-10324
33.5	-10325
anān	-10326
arān	-10327
ddin	-10328
diya	-10329
eave	-10330
elān	-10331
fter	-10332
giya	-10333
heke	-10334
itut	-10335
itān	-10336
lave	-10337
mali	-10338
mity	-10339
onke	-10340
onlo	-10341
pilī	-10342
rave	-10343
teri	-10344
terp	-10345
tiya	-10346
tter	-10347
udha	-10348
umšu	-10349
usān	-10350
utab	-10351
utan	-10352
utel	-10353
āmum	-10354
ānim	-10355
šnum	-10356
štar	-10357
▁0.8	-10358
▁bub	-10359
▁det	-10360
▁gol	-10361
▁goo	-10362
▁tut	-10363
33.66	-10364
3333(	-10365
83333	-10366
abart	-10367
abazu	-10368
ablet	-10369
acker	-10370
acket	-10371
adies	-10372
ading	-10373
adstr	-10374
afely	-10375
agged	-10376
agger	-10377
ailed	-10378
ainst	-10379
aking	-10380
alary	-10381
alent	-10382
alhat	-10383
alimm	-10384
aling	-10385
alise	-10386
amaya	-10387
ammal	-10388
ances	-10389
andal	-10390
andar	-10391
anded	-10392
andon	-10393
andum	-10394
aniya	-10395
antee	-10396
arate	-10397
arent	-10398
ariya	-10399
66?	-10400
bac	-10401
bli	-10402
bst	-10403
buz	-10404
kuz	-10405
ldr	-10406
muz	-10407
odd	-10408
ost	-10409
pac	-10410
pie	-10411
rst	-10412
ste	-10413
ttī	-10414
udd	-10415
uzā	-10416
zuz	-10417
▁ew	-10418
▁ez	-10419
▁eš	-10420
2.66	-10421
]0.5	-10422
addl	-10423
ahuš	-10424
akil	-10425
aldi	-10426
anti	-10427
arty	-10428
erst	-10429
feri	-10430
gain	-10431
mony	-10432
ndst	-10433
nity	-10434
nows	-10435
rive	-10436
stan	-10437
ston	-10438
tive	-10439
ulat	-10440
usta	-10441
uzad	-10442
uzal	-10443
uzar	-10444
uzat	-10445
uzay	-10446
uzil	-10447
uzin	-10448
▁abd	-10449
▁amk	-10450
▁amr	-10451
▁arš	-10452
▁atū	-10453
▁dep	-10454
▁eit	-10455
▁muz	-10456
▁oni	-10457
▁onl	-10458
▁pac	-10459
▁pir	-10460
alled	-10461
arnig	-10462
arnum	-10463
arrum	-10464
arter	-10465
artic	-10466
artur	-10467
asasa	-10468
asaya	-10469
ashes	-10470
aster	-10471
asāya	-10472
atern	-10473
atrum	-10474
atter	-10475
avell	-10476
aying	-10477
ašall	-10478
ašana	-10479
bered	-10480
btain	-10481
cated	-10482
ceive	-10483
charg	-10484
clude	-10485
count	-10486
dered	-10487
dnaya	-10488
dnāya	-10489
earli	-10490
edina	-10491
eding	-10492
educt	-10493
eeded	-10494
elded	-10495
elers	-10496
eling	-10497
ement	-10498
enass	-10499
'."	-10500
0.8	-10501
]."	-10502
ais	-10503
fac	-10504
fis	-10505
isa	-10506
isi	-10507
ism	-10508
isp	-10509
isu	-10510
isā	-10511
liv	-10512
maš	-10513
odg	-10514
ome	-10515
riv	-10516
sac	-10517
sis	-10518
tac	-10519
tho	-10520
tly	-10521
uiv	-10522
vth	-10523
yth	-10524
ṣir	-10525
▁4.	-10526
▁ht	-10527
▁hu	-10528
▁rp	-10529
anak	-10530
arch	-10531
atis	-10532
ativ	-10533
baya	-10534
edly	-10535
eris	-10536
exac	-10537
ilip	-10538
irts	-10539
isat	-10540
isay	-10541
isel	-10542
iser	-10543
isha	-10544
ittl	-10545
ivel	-10546
iven	-10547
ivid	-10548
ivin	-10549
leag	-10550
mpen	-10551
mple	-10552
oden	-10553
onth	-10554
week	-10555
▁15:	-10556
▁2.8	-10557
▁atā	-10558
▁hum	-10559
▁lac	-10560
▁ras	-10561
▁rat	-10562
▁rit	-10563
▁rou	-10564
▁sis	-10565
adaya	-10566
annus	-10567
elaya	-10568
enied	-10569
ening	-10570
entar	-10571
entat	-10572
ented	-10573
enter	-10574
entif	-10575
entit	-10576
entle	-10577
entor	-10578
entur	-10579
eping	-10580
ercha	-10581
erday	-10582
erent	-10583
erest	-10584
ering	-10585
erted	-10586
ertum	-10587
erves	-10588
esent	-10589
eserv	-10590
eshit	-10591
esort	-10592
essan	-10593
essel	-10594
essen	-10595
esser	-10596
esses	-10597
essiv	-10598
essor	-10599
ctu	-10600
dik	-10601
fir	-10602
gir	-10603
gul	-10604
iri	-10605
irs	-10606
irt	-10607
mir	-10608
mul	-10609
nct	-10610
nul	-10611
rug	-10612
sun	-10613
tri	-10614
ulv	-10615
ulā	-10616
ulū	-10617
wir	-10618
zir	-10619
ēlu	-10620
▁00	-10621
▁04	-10622
▁5(	-10623
▁5.	-10624
▁5⁄	-10625
alpe	-10626
alue	-10627
ansf	-10628
anuš	-10629
avel	-10630
cted	-10631
ctiv	-10632
elul	-10633
esul	-10634
gaya	-10635
hair	-10636
heir	-10637
iaya	-10638
icat	-10639
irit	-10640
irst	-10641
oney	-10642
ppun	-10643
udge	-10644
ulab	-10645
ulan	-10646
uler	-10647
ulul	-10648
ulum	-10649
ulur	-10650
ulān	-10651
ursu	-10652
uzul	-10653
ēlum	-10654
▁abo	-10655
▁dow	-10656
▁err	-10657
▁ful	-10658
▁gir	-10659
▁lul	-10660
▁nir	-10661
▁nul	-10662
▁obj	-10663
▁som	-10664
▁sul	-10665
actic	-10666
agons	-10667
anaya	-10668
ataya	-10669
cking	-10670
cting	-10671
enaya	-10672
essur	-10673
estab	-10674
estam	-10675
estat	-10676
ested	-10677
estee	-10678
estes	-10679
estim	-10680
estiv	-10681
estor	-10682
estro	-10683
ether	-10684
ficed	-10685
fined	-10686
forem	-10687
gally	-10688
gated	-10689
gered	-10690
ghing	-10691
hatso	-10692
hatum	-10693
haust	-10694
hekel	-10695
hered	-10696
hiaya	-10697
hould	-10698
hriya	-10699
llo	-10700
meb	-10701
meg	-10702
mem	-10703
mew	-10704
meš	-10705
taš	-10706
upb	-10707
▁"2	-10708
▁[(	-10709
▁[0	-10710
▁[9	-10711
aind	-10712
ainl	-10713
ains	-10714
aktu	-10715
alme	-10716
arme	-10717
azub	-10718
eeds	-10719
fall	-10720
ghha	-10721
hame	-10722
hell	-10723
ikay	-10724
kapp	-10725
lain	-10726
llen	-10727
meas	-10728
meon	-10729
meth	-10730
ords	-10731
pres	-10732
rain	-10733
rice	-10734
tand	-10735
tion	-10736
urif	-10737
urme	-10738
vied	-10739
▁10.	-10740
▁10:	-10741
▁3.8	-10742
▁išā	-10743
▁lea	-10744
▁usu	-10745
▁usā	-10746
3333?	-10747
3333]	-10748
ainer	-10749
anion	-10750
chant	-10751
ction	-10752
ghter	-10753
ially	-10754
icate	-10755
idiya	-10756
ieces	-10757
ience	-10758
ieves	-10759
iffer	-10760
iffic	-10761
iglet	-10762
ikann	-10763
ikaya	-10764
ikašu	-10765
ilaya	-10766
ilent	-10767
ilill	-10768
ilina	-10769
iling	-10770
illed	-10771
iller	-10772
ilīma	-10773
iment	-10774
inded	-10775
inent	-10776
inger	-10777
ingin	-10778
ingle	-10779
ingot	-10780
inion	-10781
iniya	-10782
innum	-10783
intac	-10784
intly	-10785
inued	-10786
ional	-10787
ipper	-10788
irits	-10789
isaya	-10790
isent	-10791
isher	-10792
ishes	-10793
ispos	-10794
itani	-10795
itant	-10796
itina	-10797
iting	-10798
itors	-10799
cri	-10800
dri	-10801
emu	-10802
gly	-10803
hly	-10804
ikk	-10805
ikt	-10806
iku	-10807
kly	-10808
nci	-10809
qui	-10810
rge	-10811
rib	-10812
sly	-10813
wri	-10814
zik	-10815
ēli	-10816
ēlā	-10817
ēlī	-10818
ūri	-10819
agon	-10820
aign	-10821
anda	-10822
anly	-10823
ctly	-10824
duwa	-10825
erri	-10826
ffor	-10827
ikum	-10828
kkal	-10829
lfor	-10830
nfor	-10831
nown	-10832
ongd	-10833
orri	-10834
pond	-10835
pply	-10836
rand	-10837
riat	-10838
ries	-10839
righ	-10840
rāni	-10841
sand	-10842
uand	-10843
yers	-10844
zuen	-10845
ātēn	-10846
ēlas	-10847
ēlul	-10848
ēlān	-10849
▁acq	-10850
▁ell	-10851
▁emm	-10852
▁gri	-10853
▁org	-10854
▁sti	-10855
▁sty	-10856
▁tru	-10857
ahšua	-10858
andst	-10859
cefor	-10860
itres	-10861
ittan	-10862
ivide	-10863
izina	-10864
kekel	-10865
kitim	-10866
kkall	-10867
kness	-10868
kunum	-10869
laves	-10870
lding	-10871
lives	-10872
llows	-10873
malas	-10874
mands	-10875
ments	-10876
mined	-10877
miths	-10878
nated	-10879
ndary	-10880
ndent	-10881
nderw	-10882
ndred	-10883
nduct	-10884
nilum	-10885
nnaya	-10886
nātim	-10887
oined	-10888
olved	-10889
omers	-10890
ongdo	-10891
ongly	-10892
oning	-10893
onkey	-10894
onour	-10895
onver	-10896
onymy	-10897
opper	-10898
orand	-10899
agr	-10900
ags	-10901
gag	-10902
hoe	-10903
hom	-10904
hos	-10905
kūa	-10906
maz	-10907
pag	-10908
tag	-10909
tip	-10910
uch	-10911
unt	-10912
waz	-10913
zub	-10914
agān	-10915
anag	-10916
arif	-10917
arma	-10918
atag	-10919
ašun	-10920
espe	-10921
hama	-10922
hant	-10923
hoes	-10924
ibil	-10925
lack	-10926
ntat	-10927
nted	-10928
reef	-10929
riag	-10930
sack	-10931
ulma	-10932
umma	-10933
uruš	-10934
uziz	-10935
▁16:	-10936
▁dif	-10937
▁fif	-10938
▁ilā	-10939
▁sag	-10940
▁siz	-10941
▁tho	-10942
ackag	-10943
acked	-10944
alaba	-10945
allen	-10946
azuba	-10947
chand	-10948
chase	-10949
ching	-10950
essag	-10951
estif	-10952
excha	-10953
fices	-10954
hurpi	-10955
illag	-10956
nderg	-10957
nting	-10958
onger	-10959
ordan	-10960
orded	-10961
ority	-10962
orres	-10963
orrow	-10964
ortun	-10965
osses	-10966
ossib	-10967
otive	-10968
ountr	-10969
ounts	-10970
ouple	-10971
ourab	-10972
ourag	-10973
ourth	-10974
owing	-10975
owled	-10976
pable	-10977
parti	-10978
pened	-10979
pense	-10980
pment	-10981
pping	-10982
qarra	-10983
quent	-10984
qānum	-10985
qūdum	-10986
radit	-10987
reast	-10988
refor	-10989
resen	-10990
reses	-10991
rever	-10992
riest	-10993
right	-10994
riple	-10995
rived	-10996
rness	-10997
rofit	-10998
romis	-10999
aki	-11000
akl	-11001
akṣ	-11002
eak	-11003
miz	-11004
mun	-11005
piz	-11006
rys	-11007
udh	-11008
vol	-11009
waq	-11010
waš	-11011
šak	-11012
akal	-11013
aked	-11014
aken	-11015
akes	-11016
aliz	-11017
arak	-11018
arta	-11019
assi	-11020
cort	-11021
earl	-11022
edee	-11023
ekal	-11024
fitt	-11025
hort	-11026
inue	-11027
izes	-11028
iziz	-11029
izul	-11030
lass	-11031
mass	-11032
oriz	-11033
ortf	-11034
ortu	-11035
peci	-11036
pied	-11037
ppos	-11038
rass	-11039
veni	-11040
▁agi	-11041
▁agu	-11042
▁awa	-11043
▁dak	-11044
▁eld	-11045
▁elā	-11046
▁exe	-11047
▁exi	-11048
▁exu	-11049
▁ibb	-11050
▁kep	-11051
▁niz	-11052
▁tee	-11053
alumn	-11054
anaka	-11055
assat	-11056
assed	-11057
asses	-11058
assit	-11059
assut	-11060
erned	-11061
ilili	-11062
izing	-11063
ortag	-11064
ortan	-11065
orted	-11066
pient	-11067
rowed	-11068
sated	-11069
sever	-11070
sport	-11071
stall	-11072
stent	-11073
stuct	-11074
suits	-11075
table	-11076
tahšu	-11077
tains	-11078
takuš	-11079
tarts	-11080
tarum	-11081
tarve	-11082
teent	-11083
terro	-11084
tever	-11085
therh	-11086
therm	-11087
thers	-11088
therw	-11089
ubits	-11090
ubiya	-11091
uburn	-11092
udann	-11093
udida	-11094
uding	-11095
uduwa	-11096
uined	-11097
ulaya	-11098
ulina	-11099
bow	-11100
cla	-11101
ekl	-11102
kub	-11103
kuk	-11104
kun	-11105
lau	-11106
los	-11107
nso	-11108
oos	-11109
ows	-11110
pla	-11111
soe	-11112
tow	-11113
vow	-11114
abāt	-11115
akku	-11116
alla	-11117
anso	-11118
aved	-11119
azuz	-11120
hout	-11121
keys	-11122
kupp	-11123
orey	-11124
osal	-11125
osel	-11126
oses	-11127
osit	-11128
owan	-11129
rate	-11130
sate	-11131
ubēl	-11132
unum	-11133
ēpum	-11134
▁bos	-11135
▁cla	-11136
▁kib	-11137
▁laz	-11138
▁nuh	-11139
▁pow	-11140
▁suf	-11141
▁sup	-11142
anise	-11143
asall	-11144
avour	-11145
dānum	-11146
eking	-11147
fered	-11148
hānum	-11149
ilulu	-11150
iānum	-11151
kānum	-11152
mport	-11153
mānum	-11154
osess	-11155
ostil	-11156
pered	-11157
tānum	-11158
uling	-11159
uller	-11160
ullif	-11161
ululi	-11162
ulāya	-11163
umana	-11164
umaya	-11165
umeni	-11166
umors	-11167
umour	-11168
unfor	-11169
ungry	-11170
unned	-11171
urall	-11172
urama	-11173
uraya	-11174
urcha	-11175
urely	-11176
urhum	-11177
urity	-11178
uriya	-11179
urnit	-11180
urtum	-11181
urzur	-11182
usaya	-11183
uspen	-11184
utapp	-11185
ution	-11186
utive	-11187
utiya	-11188
uttab	-11189
utter	-11190
uttum	-11191
uzadd	-11192
uzall	-11193
uzatt	-11194
uzina	-11195
vaged	-11196
verdi	-11197
vered	-11198
vived	-11199
ašr	-11200
btr	-11201
ebt	-11202
kku	-11203
kuh	-11204
nnā	-11205
nār	-11206
nāt	-11207
pok	-11208
raš	-11209
ubt	-11210
ēnā	-11211
šaš	-11212
▁6.	-11213
▁68	-11214
anaš	-11215
ansp	-11216
arku	-11217
atem	-11218
ašab	-11219
ašid	-11220
cate	-11221
gthe	-11222
iate	-11223
innā	-11224
itti	-11225
kubt	-11226
oans	-11227
oked	-11228
peak	-11229
rans	-11230
ritt	-11231
uate	-11232
uitt	-11233
unds	-11234
uraš	-11235
utib	-11236
ānāt	-11237
▁baš	-11238
▁nib	-11239
▁twi	-11240
acred	-11241
ansac	-11242
enate	-11243
erate	-11244
erser	-11245
hoose	-11246
iance	-11247
idate	-11248
inanā	-11249
itate	-11250
ldron	-11251
mally	-11252
oking	-11253
onymn	-11254
onyms	-11255
ormal	-11256
reate	-11257
riate	-11258
rives	-11259
sives	-11260
ulate	-11261
unger	-11262
upiya	-11263
wahšu	-11264
warim	-11265
wered	-11266
yriya	-11267
zanum	-11268
zuwal	-11269
ādaya	-11270
āniya	-11271
ēliya	-11272
šarum	-11273
šuhum	-11274
šunum	-11275
ššuri	-11276
ššuru	-11277
ṣānum	-11278
▁(...	-11279
▁...5	-11280
▁0.5(	-11281
▁10.1	-11282
▁10.8	-11283
▁100:	-11284
▁16.1	-11285
▁2.66	-11286
▁4.66	-11287
▁abab	-11288
▁abad	-11289
▁abar	-11290
▁abas	-11291
▁abat	-11292
▁abel	-11293
▁abil	-11294
▁abir	-11295
▁abou	-11296
▁abro	-11297
▁abso	-11298
▁abun	-11299
ašs	-11300
ckl	-11301
cks	-11302
equ	-11303
gaš	-11304
hub	-11305
ick	-11306
npī	-11307
nub	-11308
qqu	-11309
qun	-11310
ubm	-11311
uet	-11312
une	-11313
upl	-11314
▁ja	-11315
▁je	-11316
▁ju	-11317
3.66	-11318
8.66	-11319
adue	-11320
ants	-11321
arru	-11322
bled	-11323
cant	-11324
cell	-11325
ckle	-11326
clot	-11327
cure	-11328
fely	-11329
gant	-11330
ific	-11331
ipen	-11332
neys	-11333
pell	-11334
ppaš	-11335
quar	-11336
quiv	-11337
ruct	-11338
sonn	-11339
tant	-11340
ubis	-11341
ubit	-11342
ubst	-11343
ulub	-11344
unad	-11345
urub	-11346
▁1:1	-11347
▁equ	-11348
▁lap	-11349
▁unw	-11350
ansom	-11351
antal	-11352
anted	-11353
antor	-11354
ardum	-11355
eller	-11356
ellit	-11357
enant	-11358
iwala	-11359
quand	-11360
quitt	-11361
rying	-11362
stant	-11363
ubaya	-11364
ucted	-11365
▁0.66	-11366
▁1.66	-11367
▁5.66	-11368
▁6.66	-11369
▁abub	-11370
▁acce	-11371
▁acco	-11372
▁accr	-11373
▁achi	-11374
▁acor	-11375
▁acro	-11376
▁addr	-11377
▁afor	-11378
▁agre	-11379
▁ahun	-11380
▁ahāt	-11381
▁akit	-11382
▁akuz	-11383
▁alah	-11384
▁alay	-11385
▁alil	-11386
▁alit	-11387
▁allo	-11388
▁alon	-11389
▁alou	-11390
▁alre	-11391
▁alut	-11392
▁amku	-11393
▁amon	-11394
▁amou	-11395
▁anat	-11396
▁andf	-11397
▁andā	-11398
▁anis	-11399
hšu	-11400
ršu	-11401
upt	-11402
ušu	-11403
šua	-11404
šuh	-11405
šuš	-11406
ūrī	-11407
ūšu	-11408
4.66	-11409
7.66	-11410
9.66	-11411
anni	-11412
annī	-11413
aqēp	-11414
ardā	-11415
ardī	-11416
artl	-11417
came	-11418
cise	-11419
ears	-11420
ibul	-11421
mašu	-11422
oard	-11423
pili	-11424
qard	-11425
reof	-11426
ults	-11427
uršu	-11428
wear	-11429
zuwa	-11430
āqēp	-11431
šuan	-11432
ūram	-11433
▁adv	-11434
▁adū	-11435
▁afr	-11436
▁wra	-11437
-..."	-11438
aduwa	-11439
aname	-11440
arded	-11441
ardon	-11442
atard	-11443
aterp	-11444
ceeds	-11445
eared	-11446
earer	-11447
hases	-11448
horiz	-11449
laims	-11450
lment	-11451
nment	-11452
numma	-11453
ouses	-11454
ppear	-11455
qunum	-11456
umnum	-11457
ūraya	-11458
▁3.66	-11459
▁adal	-11460
▁adid	-11461
▁anon	-11462
▁anot	-11463
▁anul	-11464
▁anyb	-11465
▁anyw	-11466
▁appl	-11467
▁araš	-11468
▁arou	-11469
▁asan	-11470
▁asay	-11471
▁asha	-11472
▁ashe	-11473
▁asid	-11474
▁asqu	-11475
▁assi	-11476
▁assy	-11477
▁asān	-11478
▁atad	-11479
▁atah	-11480
▁atan	-11481
▁atat	-11482
▁atay	-11483
▁atte	-11484
▁atūr	-11485
▁azun	-11486
▁azut	-11487
▁beam	-11488
▁beca	-11489
▁beco	-11490
▁behe	-11491
▁belo	-11492
▁bewa	-11493
▁blin	-11494
▁boat	-11495
▁bord	-11496
▁brib	-11497
▁brid	-11498
▁brok	-11499
dic	-11500
epe	-11501
hāt	-11502
ici	-11503
kāt	-11504
māl	-11505
oli	-11506
olk	-11507
oys	-11508
rāt	-11509
wāt	-11510
zāl	-11511
ātē	-11512
šāt	-11513
alud	-11514
arts	-11515
atāt	-11516
gers	-11517
iced	-11518
ices	-11519
ikud	-11520
imāt	-11521
mers	-11522
rete	-11523
teor	-11524
udat	-11525
uded	-11526
udid	-11527
udud	-11528
udul	-11529
udāt	-11530
uhuz	-11531
ālil	-11532
ātān	-11533
▁arb	-11534
▁aru	-11535
▁ket	-11536
▁lāl	-11537
▁que	-11538
▁una	-11539
▁uno	-11540
▁unp	-11541
▁unr	-11542
...],	-11543
...];	-11544
aders	-11545
artan	-11546
assāt	-11547
eting	-11548
ickel	-11549
olfor	-11550
udaya	-11551
uried	-11552
āliya	-11553
šātum	-11554
ṭṭara	-11555
▁arre	-11556
▁bron	-11557
▁brou	-11558
▁butk	-11559
▁butq	-11560
▁buzā	-11561
▁calm	-11562
▁cann	-11563
▁carn	-11564
▁carr	-11565
▁cart	-11566
▁caus	-11567
▁cent	-11568
▁cere	-11569
▁chea	-11570
▁chie	-11571
▁chis	-11572
▁comb	-11573
▁copi	-11574
▁copp	-11575
▁cove	-11576
▁cupb	-11577
▁cust	-11578
▁dadā	-11579
▁deat	-11580
▁decl	-11581
▁dran	-11582
▁dupl	-11583
▁elab	-11584
▁elam	-11585
▁emen	-11586
▁empt	-11587
▁enab	-11588
▁enem	-11589
▁ennn	-11590
▁enou	-11591
▁enti	-11592
▁evid	-11593
▁exac	-11594
▁exce	-11595
▁exer	-11596
▁expe	-11597
▁expl	-11598
▁exte	-11599
bra	-11600
cra	-11601
dra	-11602
ets	-11603
fet	-11604
ige	-11605
kra	-11606
nge	-11607
oge	-11608
unn	-11609
unu	-11610
wee	-11611
ymb	-11612
šet	-11613
▁'1	-11614
▁'4	-11615
ange	-11616
atuw	-11617
bers	-11618
bstr	-11619
edge	-11620
fers	-11621
iers	-11622
istr	-11623
kers	-11624
menc	-11625
nced	-11626
sons	-11627
sunu	-11628
uret	-11629
zuza	-11630
ṭuwa	-11631
▁ašt	-11632
▁dra	-11633
▁irb	-11634
▁irn	-11635
▁upb	-11636
▁zab	-11637
▁zar	-11638
▁zir	-11639
akuwa	-11640
aluwa	-11641
ayers	-11642
aziza	-11643
cedur	-11644
elian	-11645
ershi	-11646
erson	-11647
ervou	-11648
etter	-11649
iable	-11650
iluwa	-11651
lders	-11652
nings	-11653
tings	-11654
uluba	-11655
uruwa	-11656
uzuwa	-11657
▁clem	-11658
▁disd	-11659
▁extr	-11660
▁ešar	-11661
▁fill	-11662
▁fina	-11663
▁fitt	-11664
▁flas	-11665
▁fodd	-11666
▁foll	-11667
▁forc	-11668
▁forg	-11669
▁fort	-11670
▁forw	-11671
▁gain	-11672
▁gett	-11673
▁hadi	-11674
▁hadā	-11675
▁hadī	-11676
▁hanā	-11677
▁hart	-11678
▁harš	-11679
▁hašš	-11680
▁heat	-11681
▁heav	-11682
▁hidd	-11683
▁hims	-11684
▁hinn	-11685
▁hunn	-11686
▁hurr	-11687
▁hurā	-11688
▁ibis	-11689
▁idid	-11690
▁ikuw	-11691
▁ilab	-11692
▁ilal	-11693
▁inan	-11694
▁inhe	-11695
▁init	-11696
▁innā	-11697
▁inte	-11698
▁invo	-11699
eti	-11700
iet	-11701
tuš	-11702
ušt	-11703
abet	-11704
akuš	-11705
alib	-11706
aruš	-11707
asib	-11708
etch	-11709
imuš	-11710
isco	-11711
kian	-11712
mtum	-11713
nsel	-11714
quet	-11715
reet	-11716
rued	-11717
sele	-11718
tail	-11719
urna	-11720
urns	-11721
ušak	-11722
ušal	-11723
ṭara	-11724
ṭṭar	-11725
▁30.	-11726
▁akk	-11727
▁blo	-11728
▁iml	-11729
▁išī	-11730
▁loc	-11731
▁nob	-11732
▁puš	-11733
▁vid	-11734
▁vin	-11735
▁wom	-11736
▁wov	-11737
avors	-11738
espos	-11739
iated	-11740
ibaya	-11741
illuš	-11742
rease	-11743
reely	-11744
uated	-11745
urned	-11746
utors	-11747
uying	-11748
▁akaz	-11749
▁blel	-11750
▁buil	-11751
▁hars	-11752
▁harv	-11753
▁harz	-11754
▁ille	-11755
▁iriš	-11756
▁irnu	-11757
▁isal	-11758
▁isay	-11759
▁iste	-11760
▁itil	-11761
▁kaku	-11762
▁kane	-11763
▁kann	-11764
▁kanw	-11765
▁karn	-11766
▁karr	-11767
▁karz	-11768
▁karš	-11769
▁kass	-11770
▁kett	-11771
▁kina	-11772
▁kuli	-11773
▁kull	-11774
▁lear	-11775
▁leas	-11776
▁leav	-11777
▁leng	-11778
▁levy	-11779
▁list	-11780
▁litt	-11781
▁loav	-11782
▁loos	-11783
▁manu	-11784
▁mari	-11785
▁marš	-11786
▁mear	-11787
▁meas	-11788
▁memb	-11789
▁ment	-11790
▁merc	-11791
▁merh	-11792
▁misd	-11793
▁mone	-11794
▁mutu	-11795
▁nahi	-11796
▁nail	-11797
▁noon	-11798
▁noth	-11799
?).	-11800
?);	-11801
?)>	-11802
?)]	-11803
hun	-11804
lig	-11805
ukk	-11806
unc	-11807
uno	-11808
unp	-11809
▁ṣa	-11810
?)."	-11811
anaw	-11812
cred	-11813
iddi	-11814
kabi	-11815
oved	-11816
perm	-11817
pert	-11818
pice	-11819
unah	-11820
unan	-11821
unnā	-11822
wice	-11823
ṣall	-11824
▁urd	-11825
▁urā	-11826
▁urš	-11827
?)...	-11828
achot	-11829
ekall	-11830
erred	-11831
ertif	-11832
ffect	-11833
ithan	-11834
kanum	-11835
kutum	-11836
nanna	-11837
ompan	-11838
roach	-11839
urage	-11840
urred	-11841
urrum	-11842
āsiya	-11843
šuwan	-11844
▁affa	-11845
▁affe	-11846
▁anno	-11847
▁anun	-11848
▁cred	-11849
▁doub	-11850
▁grin	-11851
▁guar	-11852
▁guid	-11853
▁kukr	-11854
▁kurb	-11855
▁kurk	-11856
▁noti	-11857
▁offe	-11858
▁offi	-11859
▁ofth	-11860
▁orde	-11861
▁orig	-11862
▁outw	-11863
▁pala	-11864
▁paym	-11865
▁perf	-11866
▁peri	-11867
▁perm	-11868
▁pers	-11869
▁pest	-11870
▁plag	-11871
▁plan	-11872
▁plen	-11873
▁pour	-11874
▁prim	-11875
▁proc	-11876
▁prod	-11877
▁prof	-11878
▁proo	-11879
▁prop	-11880
▁prot	-11881
▁purp	-11882
▁puru	-11883
▁qual	-11884
▁rais	-11885
▁reac	-11886
▁rebu	-11887
▁reck	-11888
▁reco	-11889
▁reig	-11890
▁reme	-11891
▁rend	-11892
▁repa	-11893
▁repe	-11894
▁repr	-11895
▁requ	-11896
▁rout	-11897
▁saff	-11898
▁sahr	-11899
9.8	-11900
apt	-11901
niq	-11902
ung	-11903
ūta	-11904
▁93	-11905
ahun	-11906
aist	-11907
amiq	-11908
arry	-11909
atta	-11910
awaz	-11911
btun	-11912
clos	-11913
gled	-11914
mbly	-11915
mely	-11916
nian	-11917
olds	-11918
oreo	-11919
otto	-11920
rown	-11921
thir	-11922
▁	-11923
e	-11924
a	-11925
t	-11926
o	-11927
i	-11928
s	-11929
n	-11930
r	-11931
h	-11932
l	-11933
u	-11934
d	-11935
m	-11936
.	-11937
f	-11938
y	-11939
š	-11940
-	-11941
c	-11942
b	-11943
w	-11944
p	-11945
,	-11946
v	-11947
k	-11948
g	-11949
1	-11950
3	-11951
ā	-11952
ī	-11953
:	-11954
5	-11955
x	-11956
0	-11957
"	-11958
z	-11959
2	-11960
'	-11961
6	-11962
(	-11963
)	-11964
;	-11965
ē	-11966
ū	-11967
4	-11968
q	-11969
[	-11970
]	-11971
?	-11972
!	-11973
8	-11974
ṣ	-11975
7	-11976
ṭ	-11977
j	-11978
/	-11979
9	-11980
⁄	-11981
<	-11982
>	-11983
+	-11984
ʾ	-11985
—	-11986
û	-11987
’	-11988
–	-11989
“	-11990
”	-11991
}	-11992
à	-11993
ì	-11994
ד	-11995
